{
  "version": "1.0",
  "truncation": null,
  "padding": null,
  "added_tokens": [
    {
      "id": 0,
      "content": "[PAD]",
      "single_word": false,
      "lstrip": false,
      "rstrip": false,
      "normalized": false,
      "special": true
    },
    {
      "id": 1,
      "content": "[UNK]",
      "single_word": false,
      "lstrip": false,
      "rstrip": false,
      "normalized": false,
      "special": true
    },
    {
      "id": 2,
      "content": "[MASK]",
      "single_word": false,
      "lstrip": false,
      "rstrip": false,
      "normalized": false,
      "special": true
    },
    {
      "id": 3,
      "content": "[LONG_VALUE]",
      "single_word": false,
      "lstrip": false,
      "rstrip": false,
      "normalized": false,
      "special": true
    }
  ],
  "normalizer": null,
  "pre_tokenizer": {
    "type": "ByteLevel",
    "add_prefix_space": false,
    "trim_offsets": true,
    "use_regex": true
  },
  "post_processor": null,
  "decoder": {
    "type": "ByteLevel",
    "add_prefix_space": true,
    "trim_offsets": true,
    "use_regex": true
  },
  "model": {
    "type": "BPE",
    "dropout": null,
    "unk_token": "[UNK]",
    "continuing_subword_prefix": null,
    "end_of_word_suffix": null,
    "fuse_unk": false,
    "byte_fallback": false,
    "ignore_merges": false,
    "vocab": {
      "[PAD]": 0,
      "[UNK]": 1,
      "[MASK]": 2,
      "[LONG_VALUE]": 3,
      "!": 4,
      "\"": 5,
      "#": 6,
      "$": 7,
      "%": 8,
      "&": 9,
      "'": 10,
      "(": 11,
      ")": 12,
      "*": 13,
      "+": 14,
      ",": 15,
      "-": 16,
      ".": 17,
      "/": 18,
      "0": 19,
      "1": 20,
      "2": 21,
      "3": 22,
      "4": 23,
      "5": 24,
      "6": 25,
      "7": 26,
      "8": 27,
      "9": 28,
      ":": 29,
      ";": 30,
      "<": 31,
      "=": 32,
      ">": 33,
      "?": 34,
      "@": 35,
      "A": 36,
      "B": 37,
      "C": 38,
      "D": 39,
      "E": 40,
      "F": 41,
      "G": 42,
      "H": 43,
      "I": 44,
      "J": 45,
      "K": 46,
      "L": 47,
      "M": 48,
      "N": 49,
      "O": 50,
      "P": 51,
      "Q": 52,
      "R": 53,
      "S": 54,
      "T": 55,
      "U": 56,
      "V": 57,
      "W": 58,
      "X": 59,
      "Y": 60,
      "Z": 61,
      "[": 62,
      "\\": 63,
      "]": 64,
      "^": 65,
      "_": 66,
      "`": 67,
      "a": 68,
      "b": 69,
      "c": 70,
      "d": 71,
      "e": 72,
      "f": 73,
      "g": 74,
      "h": 75,
      "i": 76,
      "j": 77,
      "k": 78,
      "l": 79,
      "m": 80,
      "n": 81,
      "o": 82,
      "p": 83,
      "q": 84,
      "r": 85,
      "s": 86,
      "t": 87,
      "u": 88,
      "v": 89,
      "w": 90,
      "x": 91,
      "y": 92,
      "z": 93,
      "{": 94,
      "|": 95,
      "}": 96,
      "~": 97,
      "¡": 98,
      "¢": 99,
      "£": 100,
      "¤": 101,
      "¥": 102,
      "¦": 103,
      "§": 104,
      "¨": 105,
      "©": 106,
      "ª": 107,
      "«": 108,
      "¬": 109,
      "®": 110,
      "¯": 111,
      "°": 112,
      "±": 113,
      "²": 114,
      "³": 115,
      "´": 116,
      "µ": 117,
      "¶": 118,
      "·": 119,
      "¸": 120,
      "¹": 121,
      "º": 122,
      "»": 123,
      "¼": 124,
      "½": 125,
      "¾": 126,
      "¿": 127,
      "À": 128,
      "Á": 129,
      "Â": 130,
      "Ã": 131,
      "Ä": 132,
      "Å": 133,
      "Æ": 134,
      "Ç": 135,
      "È": 136,
      "É": 137,
      "Ê": 138,
      "Ë": 139,
      "Ì": 140,
      "Í": 141,
      "Î": 142,
      "Ï": 143,
      "Ð": 144,
      "Ñ": 145,
      "Ò": 146,
      "Ó": 147,
      "Ô": 148,
      "Õ": 149,
      "Ö": 150,
      "×": 151,
      "Ø": 152,
      "Ù": 153,
      "Ú": 154,
      "Û": 155,
      "Ü": 156,
      "Ý": 157,
      "Þ": 158,
      "ß": 159,
      "à": 160,
      "á": 161,
      "â": 162,
      "ã": 163,
      "ä": 164,
      "å": 165,
      "æ": 166,
      "ç": 167,
      "è": 168,
      "é": 169,
      "ê": 170,
      "ë": 171,
      "ì": 172,
      "í": 173,
      "î": 174,
      "ï": 175,
      "ð": 176,
      "ñ": 177,
      "ò": 178,
      "ó": 179,
      "ô": 180,
      "õ": 181,
      "ö": 182,
      "÷": 183,
      "ø": 184,
      "ù": 185,
      "ú": 186,
      "û": 187,
      "ü": 188,
      "ý": 189,
      "þ": 190,
      "ÿ": 191,
      "Ā": 192,
      "ā": 193,
      "Ă": 194,
      "ă": 195,
      "Ą": 196,
      "ą": 197,
      "Ć": 198,
      "ć": 199,
      "Ĉ": 200,
      "ĉ": 201,
      "Ċ": 202,
      "ċ": 203,
      "Č": 204,
      "č": 205,
      "Ď": 206,
      "ď": 207,
      "Đ": 208,
      "đ": 209,
      "Ē": 210,
      "ē": 211,
      "Ĕ": 212,
      "ĕ": 213,
      "Ė": 214,
      "ė": 215,
      "Ę": 216,
      "ę": 217,
      "Ě": 218,
      "ě": 219,
      "Ĝ": 220,
      "ĝ": 221,
      "Ğ": 222,
      "ğ": 223,
      "Ġ": 224,
      "ġ": 225,
      "Ģ": 226,
      "ģ": 227,
      "Ĥ": 228,
      "ĥ": 229,
      "Ħ": 230,
      "ħ": 231,
      "Ĩ": 232,
      "ĩ": 233,
      "Ī": 234,
      "ī": 235,
      "Ĭ": 236,
      "ĭ": 237,
      "Į": 238,
      "į": 239,
      "İ": 240,
      "ı": 241,
      "Ĳ": 242,
      "ĳ": 243,
      "Ĵ": 244,
      "ĵ": 245,
      "Ķ": 246,
      "ķ": 247,
      "ĸ": 248,
      "Ĺ": 249,
      "ĺ": 250,
      "Ļ": 251,
      "ļ": 252,
      "Ľ": 253,
      "ľ": 254,
      "Ŀ": 255,
      "ŀ": 256,
      "Ł": 257,
      "ł": 258,
      "Ń": 259,
      "me": 260,
      "er": 261,
      "on": 262,
      "at": 263,
      "na": 264,
      "in": 265,
      "name": 266,
      "es": 267,
      "or": 268,
      "ec": 269,
      "ap": 270,
      "st": 271,
      "ion": 272,
      "ta": 273,
      "el": 274,
      "et": 275,
      "ro": 276,
      "lu": 277,
      "con": 278,
      "nt": 279,
      "ic": 280,
      "ou": 281,
      "re": 282,
      "ers": 283,
      "dat": 284,
      "sp": 285,
      "data": 286,
      "fi": 287,
      "ma": 288,
      "app": 289,
      "it": 290,
      "io": 291,
      "api": 292,
      "ge": 293,
      "meta": 294,
      "ac": 295,
      "ort": 296,
      "metadata": 297,
      "ub": 298,
      "la": 299,
      "pe": 300,
      "kin": 301,
      "ersion": 302,
      "de": 303,
      "fig": 304,
      "res": 305,
      "va": 306,
      "pl": 307,
      "ath": 308,
      "kind": 309,
      "ol": 310,
      "ect": 311,
      "al": 312,
      "spec": 313,
      "th": 314,
      "en": 315,
      "Version": 316,
      "bel": 317,
      "pro": 318,
      "ch": 319,
      "ty": 320,
      "apiVersion": 321,
      "erv": 322,
      "ing": 323,
      "config": 324,
      "bels": 325,
      "type": 326,
      "kub": 327,
      "ount": 328,
      "lue": 329,
      "ru": 330,
      "port": 331,
      "ad": 332,
      "value": 333,
      "ate": 334,
      "ation": 335,
      "ar": 336,
      "tain": 337,
      "ri": 338,
      "as": 339,
      "ima": 340,
      "li": 341,
      "image": 342,
      "us": 343,
      "net": 344,
      "Path": 345,
      "le": 346,
      "contain": 347,
      "serv": 348,
      "labels": 349,
      "em": 350,
      "per": 351,
      "om": 352,
      "rc": 353,
      "ice": 354,
      "ace": 355,
      "ourc": 356,
      "00": 357,
      "ob": 358,
      "sec": 359,
      "ernet": 360,
      "ul": 361,
      "ernetes": 362,
      "kubernetes": 363,
      "olu": 364,
      "space": 365,
      "an": 366,
      "olume": 367,
      "ret": 368,
      "ent": 369,
      "Re": 370,
      "oc": 371,
      "ector": 372,
      "pt": 373,
      "rue": 374,
      "up": 375,
      "com": 376,
      "atch": 377,
      "resourc": 378,
      "ti": 379,
      "des": 380,
      "--": 381,
      "80": 382,
      "no": 383,
      "ame": 384,
      "ey": 385,
      "secret": 386,
      "ho": 387,
      "ds": 388,
      "namespace": 389,
      "volume": 390,
      "po": 391,
      "elector": 392,
      "Port": 393,
      "ption": 394,
      "Name": 395,
      "ster": 396,
      "is": 397,
      "ht": 398,
      "resources": 399,
      "cri": 400,
      "tp": 401,
      "mount": 402,
      "qu": 403,
      "str": 404,
      "est": 405,
      "lo": 406,
      "mountPath": 407,
      "fa": 408,
      "containers": 409,
      "econ": 410,
      "the": 411,
      "cription": 412,
      "http": 413,
      "description": 414,
      "selector": 415,
      "ay": 416,
      "ed": 417,
      "service": 418,
      "sh": 419,
      "gin": 420,
      "luster": 421,
      "path": 422,
      "ment": 423,
      "ject": 424,
      "olic": 425,
      "au": 426,
      "get": 427,
      "Ref": 428,
      "True": 429,
      "olicy": 430,
      "ex": 431,
      "ver": 432,
      "empl": 433,
      "etc": 434,
      "ER": 435,
      "roup": 436,
      "se": 437,
      "age": 438,
      "ports": 439,
      "emplate": 440,
      "to": 441,
      "ur": 442,
      "Policy": 443,
      "read": 444,
      "ator": 445,
      "oy": 446,
      "ess": 447,
      "auth": 448,
      "template": 449,
      "rom": 450,
      "si": 451,
      "key": 452,
      "stor": 453,
      "Secon": 454,
      "Con": 455,
      "Seconds": 456,
      "wor": 457,
      "ploy": 458,
      "bac": 459,
      "plic": 460,
      "Map": 461,
      "Group": 462,
      "bo": 463,
      "De": 464,
      "ra": 465,
      "From": 466,
      "container": 467,
      "match": 468,
      "tar": 469,
      "env": 470,
      "ployment": 471,
      "be": 472,
      "object": 473,
      "oper": 474,
      "rol": 475,
      "init": 476,
      "ly": 477,
      "On": 478,
      "ME": 479,
      "apps": 480,
      "requ": 481,
      "cp": 482,
      "host": 483,
      "La": 484,
      "10": 485,
      "atus": 486,
      "am": 487,
      "Labels": 488,
      "valueFrom": 489,
      "matchLabels": 490,
      "apiGroup": 491,
      "ip": 492,
      "ot": 493,
      "ir": 494,
      "operator": 495,
      "string": 496,
      "ope": 497,
      "plicas": 498,
      "red": 499,
      "fiel": 500,
      "git": 501,
      "ult": 502,
      "NA": 503,
      "bs": 504,
      "cc": 505,
      "Ġthe": 506,
      "containerPort": 507,
      "ress": 508,
      "Serv": 509,
      "cont": 510,
      "ler": 511,
      "ties": 512,
      "perties": 513,
      "iz": 514,
      "ngin": 515,
      "RE": 516,
      "nginx": 517,
      "status": 518,
      "node": 519,
      "ter": 520,
      "ist": 521,
      "ory": 522,
      "replicas": 523,
      "job": 524,
      "cr": 525,
      "field": 526,
      "ger": 527,
      "of": 528,
      "ations": 529,
      "Service": 530,
      "properties": 531,
      "mana": 532,
      "mem": 533,
      "im": 534,
      "open": 535,
      "Deployment": 536,
      "ull": 537,
      "storage": 538,
      "Only": 539,
      "apiGroups": 540,
      "verbs": 541,
      "cpu": 542,
      "cluster": 543,
      "NAME": 544,
      "memory": 545,
      "readOnly": 546,
      "control": 547,
      "ok": 548,
      "ock": 549,
      "nd": 550,
      "cer": 551,
      "ounts": 552,
      "end": 553,
      "prot": 554,
      "od": 555,
      "we": 556,
      "target": 557,
      "gs": 558,
      "volumeM": 559,
      "ocol": 560,
      "min": 561,
      "fault": 562,
      "ity": 563,
      "ce": 564,
      "protocol": 565,
      "Pull": 566,
      "configMap": 567,
      "kube": 568,
      "he": 569,
      "imagePull": 570,
      "date": 571,
      "volumeMounts": 572,
      "dev": 573,
      "il": 574,
      "hub": 575,
      "default": 576,
      "Acc": 577,
      "ST": 578,
      "Pro": 579,
      "work": 580,
      "20": 581,
      "csi": 582,
      "Account": 583,
      "tr": 584,
      "for": 585,
      "sy": 586,
      "int": 587,
      "not": 588,
      "imagePullPolicy": 589,
      "ole": 590,
      "PO": 591,
      "Key": 592,
      "true": 593,
      "controller": 594,
      "if": 595,
      "web": 596,
      "IN": 597,
      "request": 598,
      "ss": 599,
      "list": 600,
      "oriz": 601,
      "Mi": 602,
      "github": 603,
      "TC": 604,
      "ON": 605,
      "targetPort": 606,
      "rbac": 607,
      "volumes": 608,
      "pod": 609,
      "ash": 610,
      "methe": 611,
      "Cluster": 612,
      "metheus": 613,
      "orization": 614,
      "requests": 615,
      "ble": 616,
      "authorization": 617,
      "CE": 618,
      "mand": 619,
      "ions": 620,
      "annot": 621,
      "prometheus": 622,
      "command": 623,
      "id": 624,
      "comp": 625,
      "um": 626,
      "run": 627,
      "plu": 628,
      "annotations": 629,
      "way": 630,
      "mon": 631,
      "version": 632,
      "cre": 633,
      "server": 634,
      "TCP": 635,
      "gh": 636,
      "ase": 637,
      "ext": 638,
      "KeyRef": 639,
      "ve": 640,
      "//": 641,
      "args": 642,
      "sc": 643,
      "ial": 644,
      "alse": 645,
      "onent": 646,
      "go": 647,
      "://": 648,
      "PA": 649,
      "Ġof": 650,
      "100": 651,
      "gra": 652,
      "ard": 653,
      "laim": 654,
      "var": 655,
      "Config": 656,
      "component": 657,
      "manager": 658,
      "Role": 659,
      "12": 660,
      "iod": 661,
      "lou": 662,
      "Probe": 663,
      "js": 664,
      "8080": 665,
      "SER": 666,
      "un": 667,
      "stem": 668,
      "OR": 669,
      "my": 670,
      "=/": 671,
      "essProbe": 672,
      "Al": 673,
      "elin": 674,
      "test": 675,
      "mit": 676,
      "role": 677,
      "log": 678,
      "iodSeconds": 679,
      "mo": 680,
      "back": 681,
      "fana": 682,
      "ka": 683,
      "ways": 684,
      "ipelin": 685,
      "art": 686,
      "grafana": 687,
      "ics": 688,
      "acc": 689,
      "ift": 690,
      "IP": 691,
      "Always": 692,
      "SE": 693,
      "sch": 694,
      "metr": 695,
      "sub": 696,
      "bu": 697,
      "AT": 698,
      "json": 699,
      "elet": 700,
      "watch": 701,
      "shift": 702,
      "limit": 703,
      "loud": 704,
      "les": 705,
      "gi": 706,
      "db": 707,
      "openshift": 708,
      "hook": 709,
      "finit": 710,
      "dit": 711,
      "Pod": 712,
      "te": 713,
      "ind": 714,
      "plugin": 715,
      "cert": 716,
      "pipelin": 717,
      "low": 718,
      "EN": 719,
      "ired": 720,
      "fieldPath": 721,
      "ingress": 722,
      "fieldRef": 723,
      "SS": 724,
      "system": 725,
      "limits": 726,
      "000": 727,
      "ql": 728,
      "serviceAccount": 729,
      "xy": 730,
      "dash": 731,
      "secretKeyRef": 732,
      "ersist": 733,
      "90": 734,
      "cloud": 735,
      "ken": 736,
      "inst": 737,
      "ust": 738,
      "dashbo": 739,
      "vi": 740,
      "AP": 741,
      "ersistent": 742,
      "ele": 743,
      "token": 744,
      "time": 745,
      "metrics": 746,
      "30": 747,
      "vis": 748,
      "Get": 749,
      "urity": 750,
      "httpGet": 751,
      "oauth": 752,
      "LE": 753,
      "alth": 754,
      "fs": 755,
      "hel": 756,
      "pri": 757,
      "lan": 758,
      "ema": 759,
      "health": 760,
      "serviceAccountName": 761,
      "security": 762,
      "gcr": 763,
      "ode": 764,
      "ConfigMap": 765,
      "ged": 766,
      "55": 767,
      "elay": 768,
      "update": 769,
      "os": 770,
      "proxy": 771,
      "ns": 772,
      "ven": 773,
      "DE": 774,
      "tl": 775,
      "required": 776,
      "initial": 777,
      "11": 778,
      "secretName": 779,
      "loc": 780,
      "lass": 781,
      "dashboard": 782,
      "out": 783,
      "ph": 784,
      "ClusterRole": 785,
      "Cont": 786,
      "MA": 787,
      "resent": 788,
      "ati": 789,
      "44": 790,
      "Ġto": 791,
      "Volume": 792,
      "itor": 793,
      "RO": 794,
      "Ex": 795,
      "gistr": 796,
      "post": 797,
      "jx": 798,
      "Delay": 799,
      "enkin": 800,
      "Ġis": 801,
      "rules": 802,
      "point": 803,
      "Ġa": 804,
      "enkins": 805,
      "demo": 806,
      "ource": 807,
      "DelaySeconds": 808,
      "LO": 809,
      "gy": 810,
      "50": 811,
      "initialDelaySeconds": 812,
      "inf": 813,
      "jenkins": 814,
      "Read": 815,
      "lib": 816,
      "hostPath": 817,
      "create": 818,
      "ps": 819,
      "registr": 820,
      "False": 821,
      "UR": 822,
      "ouse": 823,
      "ID": 824,
      "su": 825,
      "elease": 826,
      "liven": 827,
      "form": 828,
      "cli": 829,
      "dir": 830,
      "Sch": 831,
      "add": 832,
      "secrets": 833,
      "ersistentVolume": 834,
      "max": 835,
      "ems": 836,
      "If": 837,
      "Not": 838,
      "tart": 839,
      "webhook": 840,
      "SERV": 841,
      "vc": 842,
      "ocker": 843,
      "88": 844,
      "file": 845,
      "ple": 846,
      "release": 847,
      "St": 848,
      "items": 849,
      "AD": 850,
      "ass": 851,
      "ghth": 852,
      "vent": 853,
      "ghthouse": 854,
      "all": 855,
      "periodSeconds": 856,
      "Selector": 857,
      "bin": 858,
      "ack": 859,
      "docker": 860,
      "local": 861,
      "ron": 862,
      "Context": 863,
      "ure": 864,
      "ite": 865,
      "tls": 866,
      "oll": 867,
      "lighthouse": 868,
      "termin": 869,
      "ee": 870,
      "gr": 871,
      "ner": 872,
      "POD": 873,
      "resource": 874,
      "nati": 875,
      "IfNot": 876,
      "Present": 877,
      "prow": 878,
      "IfNotPresent": 879,
      "Up": 880,
      "securityContext": 881,
      "user": 882,
      "IT": 883,
      "sql": 884,
      "restart": 885,
      "Dir": 886,
      "scal": 887,
      "timeout": 888,
      "native": 889,
      "plugins": 890,
      "ml": 891,
      "ci": 892,
      "gres": 893,
      "ws": 894,
      "monitor": 895,
      "restartPolicy": 896,
      "termination": 897,
      "https": 898,
      "25": 899,
      "$(": 900,
      "HO": 901,
      "econfig": 902,
      "client": 903,
      "Sec": 904,
      "Claim": 905,
      "lat": 906,
      "jsonPath": 907,
      "Update": 908,
      "postgres": 909,
      "readin": 910,
      "vision": 911,
      "ance": 912,
      "Ġfor": 913,
      "knative": 914,
      "aml": 915,
      "ategy": 916,
      "ca": 917,
      "kubeconfig": 918,
      "one": 919,
      "ut": 920,
      "og": 921,
      "CON": 922,
      "Namespace": 923,
      "ServiceAccount": 924,
      "Th": 925,
      "yaml": 926,
      "Gi": 927,
      "32": 928,
      "endpoint": 929,
      "FI": 930,
      "livenessProbe": 931,
      "delet": 932,
      "flow": 933,
      "latest": 934,
      "fic": 935,
      "old": 936,
      "backend": 937,
      "state": 938,
      "access": 939,
      "Secret": 940,
      "AC": 941,
      "set": 942,
      "GE": 943,
      "ingUpdate": 944,
      "inding": 945,
      "event": 946,
      "Ġw": 947,
      "co": 948,
      "redis": 949,
      "and": 950,
      "API": 951,
      "ustom": 952,
      "arr": 953,
      "instance": 954,
      "load": 955,
      "64": 956,
      "deployment": 957,
      "sock": 958,
      "KE": 959,
      "beta": 960,
      "ag": 961,
      "readinessProbe": 962,
      "UT": 963,
      "Class": 964,
      "mysql": 965,
      "SPA": 966,
      "lin": 967,
      "ersistentVolumeClaim": 968,
      "35": 969,
      "ION": 970,
      "ime": 971,
      "array": 972,
      "ker": 973,
      "resh": 974,
      "SPACE": 975,
      "patch": 976,
      "In": 977,
      "nal": 978,
      "pipeline": 979,
      "nc": 980,
      "false": 981,
      "conf": 982,
      "NAMESPACE": 983,
      "Ġth": 984,
      "ens": 985,
      "rite": 986,
      "map": 987,
      "Per": 988,
      "kt": 989,
      "lic": 990,
      "by": 991,
      "fka": 992,
      "timeoutSeconds": 993,
      "LI": 994,
      "master": 995,
      "eck": 996,
      "strategy": 997,
      "served": 998,
      "Ġ*": 999,
      "15": 1000,
      "ample": 1001,
      "delete": 1002,
      "managed": 1003,
      "As": 1004,
      "ild": 1005,
      "reshold": 1006,
      "prod": 1007,
      "claim": 1008,
      "finity": 1009,
      "ila": 1010,
      "url": 1011,
      "ICE": 1012,
      "race": 1013,
      "kton": 1014,
      "40": 1015,
      "registry": 1016,
      "tekton": 1017,
      "LOG": 1018,
      "org": 1019,
      "group": 1020,
      "sched": 1021,
      "Threshold": 1022,
      "monitoring": 1023,
      "ore": 1024,
      "ry": 1025,
      "ser": 1026,
      "ffinity": 1027,
      "fron": 1028,
      "ies": 1029,
      "vaila": 1030,
      "front": 1031,
      "ĠĠ": 1032,
      "SERVICE": 1033,
      "odes": 1034,
      "DB": 1035,
      "19": 1036,
      "word": 1037,
      "WOR": 1038,
      "healthz": 1039,
      "ilu": 1040,
      "condit": 1041,
      "az": 1042,
      "do": 1043,
      "Job": 1044,
      "Ty": 1045,
      "vile": 1046,
      "alan": 1047,
      "ber": 1048,
      "tific": 1049,
      "her": 1050,
      "ilure": 1051,
      "batch": 1052,
      "Res": 1053,
      "URL": 1054,
      "16": 1055,
      "eger": 1056,
      "king": 1057,
      "UD": 1058,
      "helm": 1059,
      "Grace": 1060,
      "GracePer": 1061,
      "build": 1062,
      "GracePeriodSeconds": 1063,
      "CO": 1064,
      "agent": 1065,
      "Modes": 1066,
      "Write": 1067,
      "200": 1068,
      "nable": 1069,
      "gn": 1070,
      "dent": 1071,
      "pass": 1072,
      "443": 1073,
      "accessModes": 1074,
      "quay": 1075,
      "ReadWrite": 1076,
      "terminationGracePeriodSeconds": 1077,
      "PASS": 1078,
      "admin": 1079,
      "Ġ-": 1080,
      "base": 1081,
      "aces": 1082,
      "RT": 1083,
      "imit": 1084,
      "pods": 1085,
      "ral": 1086,
      "part": 1087,
      "ule": 1088,
      "ternal": 1089,
      "USER": 1090,
      "DI": 1091,
      "98": 1092,
      "500": 1093,
      "ClassName": 1094,
      "cap": 1095,
      "pa": 1096,
      "spaces": 1097,
      "sha": 1098,
      "ever": 1099,
      "pipelines": 1100,
      "configmap": 1101,
      "runAs": 1102,
      "60": 1103,
      "dns": 1104,
      "Ġ\"": 1105,
      "ADD": 1106,
      "Limit": 1107,
      "conditions": 1108,
      "ates": 1109,
      "vailable": 1110,
      "alancer": 1111,
      "extens": 1112,
      "81": 1113,
      "ct": 1114,
      "kafka": 1115,
      "sk": 1116,
      "Binding": 1117,
      "namespaces": 1118,
      "frontend": 1119,
      "emp": 1120,
      "arch": 1121,
      "22": 1122,
      "Resource": 1123,
      "17": 1124,
      "WORD": 1125,
      "${": 1126,
      "dition": 1127,
      "mp": 1128,
      "vid": 1129,
      "{{": 1130,
      "Set": 1131,
      "di": 1132,
      "istio": 1133,
      "nodeSelector": 1134,
      "Type": 1135,
      "ff": 1136,
      "ab": 1137,
      "AL": 1138,
      "uration": 1139,
      "IMA": 1140,
      "address": 1141,
      "jects": 1142,
      "PASSWORD": 1143,
      "HOST": 1144,
      "pc": 1145,
      "Never": 1146,
      "dis": 1147,
      "ASE": 1148,
      "svc": 1149,
      "99": 1150,
      "working": 1151,
      "Schema": 1152,
      "IMAGE": 1153,
      "Time": 1154,
      "ast": 1155,
      "extensions": 1156,
      "label": 1157,
      "kubelet": 1158,
      "ib": 1159,
      "ODE": 1160,
      "34": 1161,
      "empty": 1162,
      "oad": 1163,
      "adm": 1164,
      "schema": 1165,
      "HT": 1166,
      "14": 1167,
      "EL": 1168,
      "ew": 1169,
      "configMapKeyRef": 1170,
      "serving": 1171,
      "exec": 1172,
      "ection": 1173,
      "}}": 1174,
      "box": 1175,
      "UDP": 1176,
      "bus": 1177,
      "CRE": 1178,
      "chart": 1179,
      "info": 1180,
      "ices": 1181,
      "example": 1182,
      "aws": 1183,
      "ops": 1184,
      "export": 1185,
      "py": 1186,
      "Contain": 1187,
      "Definit": 1188,
      "RI": 1189,
      "use": 1190,
      "oler": 1191,
      "KEY": 1192,
      "enable": 1193,
      "tri": 1194,
      "allow": 1195,
      "The": 1196,
      "provision": 1197,
      "PORT": 1198,
      "integer": 1199,
      "num": 1200,
      "wn": 1201,
      "79": 1202,
      "gate": 1203,
      "tra": 1204,
      "network": 1205,
      "lux": 1206,
      "emptyDir": 1207,
      "password": 1208,
      "Once": 1209,
      "roleRef": 1210,
      "subjects": 1211,
      "gress": 1212,
      "ReadWriteOnce": 1213,
      "Sched": 1214,
      "ord": 1215,
      "hello": 1216,
      "AB": 1217,
      "certs": 1218,
      "tal": 1219,
      "ep": 1220,
      "ditional": 1221,
      "policy": 1222,
      "dri": 1223,
      "=$(": 1224,
      "ual": 1225,
      "pre": 1226,
      "ni": 1227,
      "gc": 1228,
      "pha": 1229,
      "CONFI": 1230,
      "boot": 1231,
      "CONFIG": 1232,
      "failure": 1233,
      "Ġde": 1234,
      "Ġs": 1235,
      "User": 1236,
      "ccess": 1237,
      "additional": 1238,
      "Ġin": 1239,
      "applic": 1240,
      "cm": 1241,
      "ets": 1242,
      "UB": 1243,
      "Balancer": 1244,
      "Net": 1245,
      "names": 1246,
      "EC": 1247,
      "clu": 1248,
      "70": 1249,
      "ld": 1250,
      "store": 1251,
      "Ready": 1252,
      "Roll": 1253,
      "exporter": 1254,
      "kee": 1255,
      "networking": 1256,
      "rec": 1257,
      "AN": 1258,
      "emon": 1259,
      "18": 1260,
      "RU": 1261,
      "PRO": 1262,
      "act": 1263,
      "ĠC": 1264,
      "RollingUpdate": 1265,
      "ja": 1266,
      "roll": 1267,
      "APIV": 1268,
      "number": 1269,
      "vel": 1270,
      "gener": 1271,
      "toler": 1272,
      "openAPIV": 1273,
      "VER": 1274,
      "fin": 1275,
      "ful": 1276,
      "main": 1277,
      "UL": 1278,
      "alpha": 1279,
      "Mode": 1280,
      "TO": 1281,
      "mod": 1282,
      "Definition": 1283,
      "uler": 1284,
      "ogle": 1285,
      "able": 1286,
      "project": 1287,
      "__": 1288,
      "account": 1289,
      "dential": 1290,
      "bl": 1291,
      "33": 1292,
      "TP": 1293,
      "ui": 1294,
      "uring": 1295,
      "ks": 1296,
      "scope": 1297,
      "elast": 1298,
      "econci": 1299,
      "24": 1300,
      "top": 1301,
      "ClusterIP": 1302,
      "Ġ.": 1303,
      "navailable": 1304,
      "ING": 1305,
      "Affinity": 1306,
      "Ġre": 1307,
      "press": 1308,
      "plural": 1309,
      "Ġc": 1310,
      "bit": 1311,
      "elastic": 1312,
      "format": 1313,
      "google": 1314,
      "mic": 1315,
      "option": 1316,
      "da": 1317,
      "256": 1318,
      "lar": 1319,
      "sing": 1320,
      "par": 1321,
      "hi": 1322,
      "driver": 1323,
      "lues": 1324,
      "que": 1325,
      "Node": 1326,
      "TH": 1327,
      "128": 1328,
      "ority": 1329,
      "Network": 1330,
      "external": 1331,
      "During": 1332,
      "Unavailable": 1333,
      "reate": 1334,
      "services": 1335,
      "sl": 1336,
      "success": 1337,
      "maxUnavailable": 1338,
      "ENT": 1339,
      "Ġ}}": 1340,
      "wa": 1341,
      "op": 1342,
      "ready": 1343,
      "inter": 1344,
      "Names": 1345,
      "privile": 1346,
      "apiextensions": 1347,
      "application": 1348,
      "SECRE": 1349,
      "check": 1350,
      "SECRET": 1351,
      "search": 1352,
      "Sp": 1353,
      "tmp": 1354,
      "credential": 1355,
      "ms": 1356,
      "Ġbe": 1357,
      "rollingUpdate": 1358,
      "plat": 1359,
      "olo": 1360,
      "PersistentVolumeClaim": 1361,
      "3000": 1362,
      "amp": 1363,
      "provisioner": 1364,
      "CH": 1365,
      "ana": 1366,
      "privileged": 1367,
      "ck": 1368,
      "pub": 1369,
      "tf": 1370,
      "certific": 1371,
      "Status": 1372,
      "failureThreshold": 1373,
      "persistentVolumeClaim": 1374,
      "DAT": 1375,
      "nfs": 1376,
      "ffect": 1377,
      "67": 1378,
      "produ": 1379,
      "scheduler": 1380,
      "busy": 1381,
      "Load": 1382,
      "ectory": 1383,
      "platform": 1384,
      "grpc": 1385,
      "MY": 1386,
      "cac": 1387,
      "usr": 1388,
      "tcp": 1389,
      "ert": 1390,
      "kubeflow": 1391,
      "GIT": 1392,
      "\":": 1393,
      "busybox": 1394,
      "claimName": 1395,
      "fix": 1396,
      "LoadBalancer": 1397,
      "chan": 1398,
      "micro": 1399,
      "SI": 1400,
      "ĊĠ": 1401,
      "21": 1402,
      "story": 1403,
      "source": 1404,
      "mongo": 1405,
      "63": 1406,
      "storageClassName": 1407,
      "ght": 1408,
      "root": 1409,
      "cat": 1410,
      "Ġ/": 1411,
      "Ġthat": 1412,
      "oot": 1413,
      "versions": 1414,
      "stamp": 1415,
      "Spec": 1416,
      "view": 1417,
      "ging": 1418,
      "gitops": 1419,
      "Va": 1420,
      "fo": 1421,
      "credentials": 1422,
      "1000": 1423,
      "pvc": 1424,
      "Custom": 1425,
      "54": 1426,
      "flux": 1427,
      "INT": 1428,
      "luent": 1429,
      "uid": 1430,
      "manage": 1431,
      "AR": 1432,
      "coll": 1433,
      "ated": 1434,
      "Containers": 1435,
      "sync": 1436,
      "mi": 1437,
      "sel": 1438,
      "urre": 1439,
      "ceph": 1440,
      "RES": 1441,
      "HTTP": 1442,
      "reconci": 1443,
      "ResourceDefinition": 1444,
      "sa": 1445,
      "just": 1446,
      "ULT": 1447,
      "FA": 1448,
      "tolerations": 1449,
      "install": 1450,
      "ources": 1451,
      "olean": 1452,
      "minio": 1453,
      "boolean": 1454,
      "etcd": 1455,
      "8081": 1456,
      "NT": 1457,
      "No": 1458,
      "Ġdefin": 1459,
      "izer": 1460,
      "opt": 1461,
      "CustomResourceDefinition": 1462,
      "envFrom": 1463,
      "initContainers": 1464,
      "auto": 1465,
      "Root": 1466,
      "300": 1467,
      "core": 1468,
      "Exist": 1469,
      "nel": 1470,
      "ror": 1471,
      "Hel": 1472,
      "ia": 1473,
      "Ġwh": 1474,
      "==": 1475,
      "defaultMode": 1476,
      "tier": 1477,
      "effect": 1478,
      "Ġconfig": 1479,
      "plan": 1480,
      "Directory": 1481,
      "sys": 1482,
      "slack": 1483,
      "god": 1484,
      "azure": 1485,
      "PER": 1486,
      "optional": 1487,
      "GO": 1488,
      "ots": 1489,
      "ular": 1490,
      "List": 1491,
      "justice": 1492,
      "Pri": 1493,
      "NodePort": 1494,
      "leep": 1495,
      "Exists": 1496,
      "ibm": 1497,
      "PL": 1498,
      "QL": 1499,
      "subresources": 1500,
      "br": 1501,
      "Ġdefines": 1502,
      "mongod": 1503,
      "priority": 1504,
      "kots": 1505,
      "13": 1506,
      "anos": 1507,
      "fluent": 1508,
      "uk": 1509,
      "ux": 1510,
      "mesh": 1511,
      "9090": 1512,
      "fe": 1513,
      "420": 1514,
      "plication": 1515,
      "Rec": 1516,
      "ine": 1517,
      "product": 1518,
      "TE": 1519,
      "backup": 1520,
      "logging": 1521,
      "ke": 1522,
      "bot": 1523,
      "devel": 1524,
      "singular": 1525,
      "thanos": 1526,
      "ities": 1527,
      "liz": 1528,
      "pathType": 1529,
      "cd": 1530,
      "dec": 1531,
      "gov": 1532,
      "RESS": 1533,
      "management": 1534,
      "bash": 1535,
      "mongodb": 1536,
      "infra": 1537,
      "01": 1538,
      "KEN": 1539,
      "ie": 1540,
      "Timestamp": 1541,
      "Ġthis": 1542,
      "Template": 1543,
      "ical": 1544,
      "gateway": 1545,
      "Fi": 1546,
      "29": 1547,
      "Pre": 1548,
      "alert": 1549,
      "runAsUser": 1550,
      "man": 1551,
      "68": 1552,
      "fields": 1553,
      "reconciler": 1554,
      "ADDR": 1555,
      "nk": 1556,
      "Ġus": 1557,
      "Helm": 1558,
      "Ingress": 1559,
      "POST": 1560,
      "reserv": 1561,
      "collector": 1562,
      "sion": 1563,
      "BU": 1564,
      "tom": 1565,
      "Hi": 1566,
      "NODE": 1567,
      "arg": 1568,
      "600": 1569,
      "Ġstate": 1570,
      "mq": 1571,
      "nown": 1572,
      "cy": 1573,
      "ATE": 1574,
      "hot": 1575,
      "DEFA": 1576,
      "elasticsearch": 1577,
      "DEFAULT": 1578,
      "lab": 1579,
      "eventing": 1580,
      "visual": 1581,
      "ges": 1582,
      "OUT": 1583,
      "Exec": 1584,
      "conn": 1585,
      "provid": 1586,
      "workload": 1587,
      "vate": 1588,
      "persistent": 1589,
      "abil": 1590,
      "sin": 1591,
      "ationTimestamp": 1592,
      "successThreshold": 1593,
      "tide": 1594,
      "ost": 1595,
      "mac": 1596,
      "SQL": 1597,
      "maxS": 1598,
      "urge": 1599,
      "pi": 1600,
      "ored": 1601,
      "OB": 1602,
      "OT": 1603,
      "DIR": 1604,
      "cons": 1605,
      "vault": 1606,
      "History": 1607,
      "IC": 1608,
      "podinfo": 1609,
      "socket": 1610,
      "APP": 1611,
      "pv": 1612,
      "Replicas": 1613,
      "crap": 1614,
      "values": 1615,
      "None": 1616,
      "ue": 1617,
      "home": 1618,
      "SION": 1619,
      "POSTG": 1620,
      "SERVER": 1621,
      "rou": 1622,
      "kotsadm": 1623,
      "configMapRef": 1624,
      "maxSurge": 1625,
      "eme": 1626,
      "argoc": 1627,
      "Namespaced": 1628,
      "HistoryLimit": 1629,
      "END": 1630,
      "scri": 1631,
      "].": 1632,
      "KA": 1633,
      "hmac": 1634,
      "events": 1635,
      "KUB": 1636,
      "off": 1637,
      "worker": 1638,
      "argocd": 1639,
      "ystem": 1640,
      "mar": 1641,
      "scheme": 1642,
      "cle": 1643,
      "mer": 1644,
      "subPath": 1645,
      "mode": 1646,
      "ings": 1647,
      "schedule": 1648,
      "ClusterRoleBinding": 1649,
      "Prefix": 1650,
      "NE": 1651,
      "database": 1652,
      "ader": 1653,
      "registration": 1654,
      "abilities": 1655,
      "?(": 1656,
      "private": 1657,
      "Or": 1658,
      "splu": 1659,
      "proc": 1660,
      "echo": 1661,
      "ize": 1662,
      "visualizer": 1663,
      "quer": 1664,
      "definit": 1665,
      "Ġresource": 1666,
      "fer": 1667,
      "POSTGRES": 1668,
      "SH": 1669,
      "23": 1670,
      "Express": 1671,
      "LS": 1672,
      "gre": 1673,
      "line": 1674,
      "ire": 1675,
      "mess": 1676,
      "naps": 1677,
      "ith": 1678,
      "Expressions": 1679,
      "POINT": 1680,
      "irt": 1681,
      "ak": 1682,
      "napshot": 1683,
      "deck": 1684,
      "zi": 1685,
      "TOKEN": 1686,
      "matchExpressions": 1687,
      "reserve": 1688,
      "ĠK": 1689,
      "workspace": 1690,
      "Ġstatus": 1691,
      "autoscal": 1692,
      "book": 1693,
      "State": 1694,
      "pay": 1695,
      "stri": 1696,
      "ADDRESS": 1697,
      "ission": 1698,
      "cache": 1699,
      "order": 1700,
      "AUT": 1701,
      "orage": 1702,
      "binding": 1703,
      "observed": 1704,
      "configmaps": 1705,
      "apiserver": 1706,
      "sidec": 1707,
      "sidecar": 1708,
      "preserve": 1709,
      "scrap": 1710,
      "statusreconciler": 1711,
      "scale": 1712,
      "ata": 1713,
      "180": 1714,
      "creationTimestamp": 1715,
      "MIN": 1716,
      "ssl": 1717,
      "dd": 1718,
      "Schedule": 1719,
      "Kind": 1720,
      "repo": 1721,
      "ENDPOINT": 1722,
      "known": 1723,
      "trig": 1724,
      "Storage": 1725,
      "hostNetwork": 1726,
      "TI": 1727,
      "java": 1728,
      "clude": 1729,
      "class": 1730,
      "[?(": 1731,
      "@.": 1732,
      "paque": 1733,
      "[?(@.": 1734,
      "Pr": 1735,
      "Privile": 1736,
      "affinity": 1737,
      ")].": 1738,
      "LEASE": 1739,
      "202": 1740,
      "olum": 1741,
      "nodes": 1742,
      "Mess": 1743,
      "PATH": 1744,
      "ence": 1745,
      "logs": 1746,
      "Opaque": 1747,
      "mzi": 1748,
      "gp": 1749,
      "77": 1750,
      "sources": 1751,
      "led": 1752,
      "paths": 1753,
      "geE": 1754,
      "gcs": 1755,
      "val": 1756,
      "RELEASE": 1757,
      "For": 1758,
      "strimzi": 1759,
      "buck": 1760,
      "scalation": 1761,
      "geEscalation": 1762,
      "PrivilegeEscalation": 1763,
      "dex": 1764,
      "olumns": 1765,
      "sets": 1766,
      "start": 1767,
      "curre": 1768,
      "Columns": 1769,
      "ghproxy": 1770,
      "additionalPr": 1771,
      "interColumns": 1772,
      "splunk": 1773,
      "additionalPrinterColumns": 1774,
      "ason": 1775,
      "allowPrivilegeEscalation": 1776,
      "Message": 1777,
      "Ap": 1778,
      "5000": 1779,
      "from": 1780,
      "VERSION": 1781,
      "yml": 1782,
      "Da": 1783,
      "uling": 1784,
      "ECT": 1785,
      "ifi": 1786,
      "orn": 1787,
      "5555": 1788,
      "keeper": 1789,
      "Ġname": 1790,
      "RUS": 1791,
      "capabilities": 1792,
      "Daemon": 1793,
      "LOGRUS": 1794,
      "script": 1795,
      "127": 1796,
      "cal": 1797,
      "medi": 1798,
      "listKind": 1799,
      "shared": 1800,
      "PE": 1801,
      "DaemonSet": 1802,
      "self": 1803,
      "okie": 1804,
      "512": 1805,
      "FILE": 1806,
      "our": 1807,
      "TLS": 1808,
      "Ġspec": 1809,
      "payment": 1810,
      "ach": 1811,
      "28": 1812,
      "Ġand": 1813,
      "SP": 1814,
      "DIS": 1815,
      "AW": 1816,
      "ring": 1817,
      "bro": 1818,
      "DO": 1819,
      "admission": 1820,
      "device": 1821,
      "definitions": 1822,
      "AUTH": 1823,
      "ebs": 1824,
      "revision": 1825,
      "provider": 1826,
      "borg": 1827,
      "ium": 1828,
      "NoSchedule": 1829,
      "hy": 1830,
      "sit": 1831,
      "last": 1832,
      "scrape": 1833,
      "ft": 1834,
      "localhost": 1835,
      "rook": 1836,
      "lium": 1837,
      "vm": 1838,
      "cyborg": 1839,
      "custom": 1840,
      "Ġdes": 1841,
      "Secrets": 1842,
      "FOR": 1843,
      "suer": 1844,
      "JOB": 1845,
      "8888": 1846,
      "unknown": 1847,
      "backoff": 1848,
      "ATOR": 1849,
      "bil": 1850,
      "mnt": 1851,
      "cilium": 1852,
      "plane": 1853,
      "cookie": 1854,
      "27": 1855,
      "rab": 1856,
      "tage": 1857,
      "ener": 1858,
      "Fa": 1859,
      "ix": 1860,
      "sign": 1861,
      "ncy": 1862,
      "bug": 1863,
      "endpoints": 1864,
      "tool": 1865,
      "zone": 1866,
      "OPER": 1867,
      "ghorn": 1868,
      "terminationMessage": 1869,
      "crt": 1870,
      "Host": 1871,
      "Fil": 1872,
      "fina": 1873,
      "hostname": 1874,
      "cent": 1875,
      "gnored": 1876,
      "rabbit": 1877,
      "rel": 1878,
      "ream": 1879,
      "sleep": 1880,
      "REG": 1881,
      "any": 1882,
      "Recreate": 1883,
      "8000": 1884,
      "ghcr": 1885,
      "observ": 1886,
      "CA": 1887,
      "RoleBinding": 1888,
      "username": 1889,
      "BLE": 1890,
      "65": 1891,
      "dry": 1892,
      "KUBE": 1893,
      "gu": 1894,
      "vali": 1895,
      "linux": 1896,
      "iron": 1897,
      "Au": 1898,
      "postgresql": 1899,
      "ping": 1900,
      "Scheduling": 1901,
      "LU": 1902,
      "ark": 1903,
      "emplates": 1904,
      "ication": 1905,
      "world": 1906,
      "result": 1907,
      "ution": 1908,
      "Data": 1909,
      "INE": 1910,
      "cf": 1911,
      "autom": 1912,
      "DuringScheduling": 1913,
      "Cron": 1914,
      "MYSQL": 1915,
      "finaliz": 1916,
      "nodePort": 1917,
      "ĊĠĠ": 1918,
      "ki": 1919,
      "Value": 1920,
      "deploy": 1921,
      "Option": 1922,
      "virt": 1923,
      "present": 1924,
      "pose": 1925,
      "der": 1926,
      "thon": 1927,
      "8443": 1928,
      "pg": 1929,
      "backoffLimit": 1930,
      "ow": 1931,
      "ats": 1932,
      "CKE": 1933,
      "Non": 1934,
      "MON": 1935,
      "rust": 1936,
      "itical": 1937,
      "python": 1938,
      "level": 1939,
      "CKET": 1940,
      "alertmanager": 1941,
      "MODE": 1942,
      "cni": 1943,
      "OPERATOR": 1944,
      "acti": 1945,
      "bility": 1946,
      "69": 1947,
      "CronJob": 1948,
      "finalizers": 1949,
      "lay": 1950,
      "NonRoot": 1951,
      "jobTemplate": 1952,
      "Files": 1953,
      "deployments": 1954,
      "gen": 1955,
      "leader": 1956,
      "rabbitmq": 1957,
      "ology": 1958,
      "Execution": 1959,
      "bric": 1960,
      "STR": 1961,
      "block": 1962,
      "ecr": 1963,
      "UM": 1964,
      "ant": 1965,
      "fabric": 1966,
      "MET": 1967,
      "Run": 1968,
      "alp": 1969,
      "Gener": 1970,
      "39": 1971,
      "runAsNonRoot": 1972,
      "Ġon": 1973,
      "train": 1974,
      "stack": 1975,
      "ori": 1976,
      "model": 1977,
      "Ignored": 1978,
      "argo": 1979,
      "DuringSchedulingIgnored": 1980,
      "DuringExecution": 1981,
      "DuringSchedulingIgnoredDuringExecution": 1982,
      "files": 1983,
      "webhooks": 1984,
      "keep": 1985,
      "acity": 1986,
      "48": 1987,
      "Ġused": 1988,
      "task": 1989,
      "Filesystem": 1990,
      "imagePullSecrets": 1991,
      "probe": 1992,
      "aa": 1993,
      "code": 1994,
      "ATION": 1995,
      "FORM": 1996,
      "808": 1997,
      "alpine": 1998,
      "49": 1999,
      "JX": 2000,
      "inject": 2001,
      "currency": 2002,
      "certificates": 2003,
      "DATAB": 2004,
      "ha": 2005,
      "ze": 2006,
      "crd": 2007,
      "PG": 2008,
      "ards": 2009,
      "Ġset": 2010,
      "sample": 2011,
      "AWS": 2012,
      "DATABASE": 2013,
      "Options": 2014,
      "RA": 2015,
      "Str": 2016,
      "Lin": 2017,
      "spring": 2018,
      "vidia": 2019,
      "fun": 2020,
      "CESS": 2021,
      "builder": 2022,
      "include": 2023,
      "but": 2024,
      "fluentd": 2025,
      "Ġcontain": 2026,
      "USE": 2027,
      "xl": 2028,
      "production": 2029,
      "9898": 2030,
      "dro": 2031,
      "909": 2032,
      "query": 2033,
      "Create": 2034,
      "adap": 2035,
      "ran": 2036,
      "nvidia": 2037,
      "here": 2038,
      "fla": 2039,
      "lish": 2040,
      "cha": 2041,
      "aging": 2042,
      "domain": 2043,
      "ALL": 2044,
      "pool": 2045,
      "Ġlist": 2046,
      "ill": 2047,
      ")/": 2048,
      "workflow": 2049,
      "channel": 2050,
      "migr": 2051,
      "mage": 2052,
      "share": 2053,
      "enabled": 2054,
      "crier": 2055,
      "unt": 2056,
      "Ġrepresent": 2057,
      "6379": 2058,
      "BUCKET": 2059,
      "Failure": 2060,
      "hor": 2061,
      "ocket": 2062,
      "66": 2063,
      "ters": 2064,
      "ben": 2065,
      "ession": 2066,
      "ces": 2067,
      "STER": 2068,
      "trust": 2069,
      "alog": 2070,
      "ologi": 2071,
      "lb": 2072,
      "html": 2073,
      "images": 2074,
      "rest": 2075,
      "trigger": 2076,
      "38": 2077,
      "viewer": 2078,
      "ww": 2079,
      "WA": 2080,
      "otel": 2081,
      "5432": 2082,
      "ded": 2083,
      "cmd": 2084,
      "Image": 2085,
      "Ġcontains": 2086,
      "IL": 2087,
      "CT": 2088,
      "sinker": 2089,
      "Generation": 2090,
      "capacity": 2091,
      "snapshot": 2092,
      "election": 2093,
      "irst": 2094,
      "First": 2095,
      "dnsPolicy": 2096,
      "ud": 2097,
      "ACCESS": 2098,
      "51": 2099,
      "observator": 2100,
      "PIP": 2101,
      "File": 2102,
      "vol": 2103,
      "team": 2104,
      "ELINE": 2105,
      "PIPELINE": 2106,
      "air": 2107,
      "sho": 2108,
      "adapter": 2109,
      "session": 2110,
      "CLI": 2111,
      "envoy": 2112,
      "120": 2113,
      "observatorium": 2114,
      "mark": 2115,
      "ich": 2116,
      "secure": 2117,
      "Ġd": 2118,
      "debug": 2119,
      "Control": 2120,
      "certificate": 2121,
      "ENA": 2122,
      "ote": 2123,
      "night": 2124,
      "adline": 2125,
      "critical": 2126,
      "ACK": 2127,
      "horologi": 2128,
      "horologium": 2129,
      "serviceName": 2130,
      "cry": 2131,
      "daemon": 2132,
      "ironment": 2133,
      "To": 2134,
      "nodeName": 2135,
      "size": 2136,
      "/{{": 2137,
      "broker": 2138,
      "NS": 2139,
      "topology": 2140,
      "change": 2141,
      "ico": 2142,
      "bench": 2143,
      "43": 2144,
      "publish": 2145,
      "addon": 2146,
      "GHT": 2147,
      "fulSet": 2148,
      "disk": 2149,
      "message": 2150,
      "jobs": 2151,
      "Configuration": 2152,
      "dashboards": 2153,
      "Deadline": 2154,
      "MONGO": 2155,
      "ansi": 2156,
      "250": 2157,
      "very": 2158,
      "ENABLE": 2159,
      "Id": 2160,
      "CSI": 2161,
      "sters": 2162,
      "cs": 2163,
      "heri": 2164,
      "655": 2165,
      "heritage": 2166,
      "tran": 2167,
      "45": 2168,
      "StatefulSet": 2169,
      "nightly": 2170,
      "paymentservice": 2171,
      "26": 2172,
      "gpu": 2173,
      "OrCreate": 2174,
      "quest": 2175,
      "Ġconfiguration": 2176,
      "47": 2177,
      "resourceVersion": 2178,
      "hat": 2179,
      "short": 2180,
      "src": 2181,
      "Age": 2182,
      "CLIENT": 2183,
      "afka": 2184,
      "mple": 2185,
      "192": 2186,
      "85": 2187,
      "DeadlineSeconds": 2188,
      "UNT": 2189,
      "cher": 2190,
      "priorityClassName": 2191,
      "fc": 2192,
      "RIC": 2193,
      "UID": 2194,
      "catalog": 2195,
      "stream": 2196,
      "tput": 2197,
      "kustom": 2198,
      "environment": 2199,
      "Ġdesired": 2200,
      "cron": 2201,
      "ycle": 2202,
      "Ġan": 2203,
      "error": 2204,
      "configs": 2205,
      "zo": 2206,
      "==\"": 2207,
      "ases": 2208,
      "Strategy": 2209,
      "gke": 2210,
      "FORMAT": 2211,
      "330": 2212,
      "fact": 2213,
      "\")].": 2214,
      "ĊĠĠĠ": 2215,
      "AM": 2216,
      "ota": 2217,
      "rule": 2218,
      "KER": 2219,
      "secretRef": 2220,
      "eb": 2221,
      "plica": 2222,
      "enum": 2223,
      "31": 2224,
      "gitlab": 2225,
      "Ġwill": 2226,
      "parame": 2227,
      "SY": 2228,
      "37": 2229,
      "concurrency": 2230,
      "origin": 2231,
      "DirectoryOrCreate": 2232,
      "hash": 2233,
      "Ter": 2234,
      "raft": 2235,
      "kustomize": 2236,
      "ertific": 2237,
      "link": 2238,
      "MODEL": 2239,
      "generator": 2240,
      "arn": 2241,
      "spire": 2242,
      "uri": 2243,
      "Properties": 2244,
      "Ġby": 2245,
      "gor": 2246,
      "MAIN": 2247,
      "public": 2248,
      "IO": 2249,
      "clusterIP": 2250,
      "shortNames": 2251,
      "zon": 2252,
      "Ġh": 2253,
      "bi": 2254,
      "ko": 2255,
      "Controller": 2256,
      "ef": 2257,
      "Socket": 2258,
      "issuer": 2259,
      "COUNT": 2260,
      "sm": 2261,
      "parameters": 2262,
      "ba": 2263,
      "nee": 2264,
      "168": 2265,
      "concurrencyPolicy": 2266,
      "output": 2267,
      "PersistentVolume": 2268,
      "Ġwhich": 2269,
      "labelSelector": 2270,
      "NET": 2271,
      "revisionHistoryLimit": 2272,
      "wave": 2273,
      "drop": 2274,
      "ute": 2275,
      "Ġtime": 2276,
      "so": 2277,
      "tele": 2278,
      "results": 2279,
      "place": 2280,
      "efi": 2281,
      "Ġcluster": 2282,
      "ENV": 2283,
      "ures": 2284,
      "SO": 2285,
      "stable": 2286,
      "lit": 2287,
      "andra": 2288,
      "gcp": 2289,
      "redhat": 2290,
      "runner": 2291,
      "vers": 2292,
      "tings": 2293,
      "HOUSE": 2294,
      "ClusterFirst": 2295,
      "1234": 2296,
      "53": 2297,
      "sum": 2298,
      "LIGHT": 2299,
      "eeper": 2300,
      "ny": 2301,
      "KIN": 2302,
      "OnFailure": 2303,
      "ampl": 2304,
      "FO": 2305,
      "stateful": 2306,
      "HE": 2307,
      "dc": 2308,
      "Versions": 2309,
      "hostPort": 2310,
      "trusted": 2311,
      "aph": 2312,
      "Many": 2313,
      "needs": 2314,
      "1111": 2315,
      "stat": 2316,
      "liveness": 2317,
      "lock": 2318,
      "mus": 2319,
      "eler": 2320,
      "foghorn": 2321,
      "DOMAIN": 2322,
      "efik": 2323,
      "42": 2324,
      "Ġ(": 2325,
      "{\"": 2326,
      "tcpSocket": 2327,
      "traefik": 2328,
      "bid": 2329,
      "terminationMessagePolicy": 2330,
      "LIGHTHOUSE": 2331,
      "clo": 2332,
      "BO": 2333,
      "pus": 2334,
      "peer": 2335,
      "3306": 2336,
      "TCH": 2337,
      "Wor": 2338,
      "56": 2339,
      "ADMIN": 2340,
      "RUN": 2341,
      "Com": 2342,
      "ndle": 2343,
      "rm": 2344,
      "ube": 2345,
      "ree": 2346,
      "36": 2347,
      "001": 2348,
      "StorageClass": 2349,
      "additionalProperties": 2350,
      "assandra": 2351,
      "iam": 2352,
      "TIME": 2353,
      "lif": 2354,
      "mazon": 2355,
      "atib": 2356,
      "owner": 2357,
      "over": 2358,
      "cn": 2359,
      "men": 2360,
      "sig": 2361,
      "ssh": 2362,
      "ĠTh": 2363,
      "EX": 2364,
      "disco": 2365,
      "calico": 2366,
      "edge": 2367,
      "hyper": 2368,
      "sr": 2369,
      "tor": 2370,
      "Forbid": 2371,
      "ecycle": 2372,
      "jaeger": 2373,
      "ages": 2374,
      "bas": 2375,
      "bootstr": 2376,
      "erun": 2377,
      "consul": 2378,
      "fsGroup": 2379,
      "dy": 2380,
      "VEL": 2381,
      "katib": 2382,
      "ules": 2383,
      "shop": 2384,
      "cate": 2385,
      "kom": 2386,
      "uer": 2387,
      "listen": 2388,
      "erpri": 2389,
      "zook": 2390,
      "61": 2391,
      "AGE": 2392,
      "Replication": 2393,
      "son": 2394,
      "ReadWriteMany": 2395,
      "87": 2396,
      "COM": 2397,
      "Ġsh": 2398,
      "hm": 2399,
      "rid": 2400,
      "reason": 2401,
      "laimPolicy": 2402,
      "REDIS": 2403,
      "USERNAME": 2404,
      "2020": 2405,
      "ei": 2406,
      "prefer": 2407,
      "METRIC": 2408,
      "skos": 2409,
      "9000": 2410,
      "boskos": 2411,
      "atter": 2412,
      "CONT": 2413,
      "Jobs": 2414,
      "graph": 2415,
      "RootFilesystem": 2416,
      "mach": 2417,
      "aggre": 2418,
      "readOnlyRootFilesystem": 2419,
      "bucket": 2420,
      "authent": 2421,
      "ign": 2422,
      "cloak": 2423,
      "pd": 2424,
      "sumer": 2425,
      "index": 2426,
      "erprise": 2427,
      "ROOT": 2428,
      "coreos": 2429,
      "spark": 2430,
      "\",": 2431,
      "runt": 2432,
      "ov": 2433,
      "tail": 2434,
      "active": 2435,
      "JobsHistoryLimit": 2436,
      "Mem": 2437,
      "ific": 2438,
      "LEVEL": 2439,
      "Container": 2440,
      "formation": 2441,
      "Po": 2442,
      "runtime": 2443,
      "kompose": 2444,
      "Add": 2445,
      "He": 2446,
      "roach": 2447,
      "internal": 2448,
      "compl": 2449,
      "categor": 2450,
      "20210": 2451,
      "ReplicationController": 2452,
      "editor": 2453,
      "amples": 2454,
      "publisher": 2455,
      "ĠS": 2456,
      "lifecycle": 2457,
      "Conn": 2458,
      "myapp": 2459,
      "PUT": 2460,
      "sup": 2461,
      "cock": 2462,
      "olicies": 2463,
      "arti": 2464,
      "podSelector": 2465,
      "89": 2466,
      "Work": 2467,
      "pes": 2468,
      "hosts": 2469,
      "azur": 2470,
      "gers": 2471,
      "UP": 2472,
      "URI": 2473,
      "LIC": 2474,
      "cockroach": 2475,
      "zookeeper": 2476,
      "ews": 2477,
      "configuration": 2478,
      "balancer": 2479,
      "ĠM": 2480,
      "categories": 2481,
      "azurecr": 2482,
      "['": 2483,
      "rebase": 2484,
      "bd": 2485,
      "Ġrec": 2486,
      "\":\"": 2487,
      "Ġtrue": 2488,
      "BRO": 2489,
      "clusters": 2490,
      "ong": 2491,
      "Values": 2492,
      "ments": 2493,
      "requiredDuringSchedulingIgnoredDuringExecution": 2494,
      "tag": 2495,
      "capt": 2496,
      "litmus": 2497,
      "queue": 2498,
      "CLU": 2499,
      "Ġobserved": 2500,
      "proj": 2501,
      "Request": 2502,
      "tools": 2503,
      "']": 2504,
      "beat": 2505,
      "fr": 2506,
      "Ch": 2507,
      "validat": 2508,
      "CORE": 2509,
      "OK": 2510,
      "ACCOUNT": 2511,
      "EMA": 2512,
      "oft": 2513,
      "FKA": 2514,
      "conv": 2515,
      "oken": 2516,
      "amazon": 2517,
      "400": 2518,
      "Default": 2519,
      "connect": 2520,
      "KAFKA": 2521,
      "Fiel": 2522,
      "crypt": 2523,
      "head": 2524,
      "capture": 2525,
      "UE": 2526,
      "52": 2527,
      "mun": 2528,
      "cassandra": 2529,
      "discovery": 2530,
      "270": 2531,
      "derr": 2532,
      "stderr": 2533,
      "ea": 2534,
      "Memory": 2535,
      "write": 2536,
      "Ġdo": 2537,
      "email": 2538,
      "central": 2539,
      "ict": 2540,
      "prom": 2541,
      "analy": 2542,
      "olm": 2543,
      "Auth": 2544,
      "artifact": 2545,
      "Ġare": 2546,
      "Dis": 2547,
      "CLUSTER": 2548,
      "policies": 2549,
      ":\\": 2550,
      "common": 2551,
      "Ġrepresents": 2552,
      "hed": 2553,
      "MIC": 2554,
      "lob": 2555,
      "arget": 2556,
      "ls": 2557,
      "Ġwith": 2558,
      "REGI": 2559,
      "staging": 2560,
      "ertificate": 2561,
      "entry": 2562,
      "allen": 2563,
      "topologyKey": 2564,
      "medium": 2565,
      "triggermesh": 2566,
      "captureorder": 2567,
      "nodeAffinity": 2568,
      "STO": 2569,
      "ES": 2570,
      "Revision": 2571,
      "free": 2572,
      "soft": 2573,
      "rolebinding": 2574,
      "ensor": 2575,
      "modules": 2576,
      "openebs": 2577,
      "CONN": 2578,
      "atta": 2579,
      "ffic": 2580,
      "WATCH": 2581,
      "PT": 2582,
      "./": 2583,
      "bles": 2584,
      "pause": 2585,
      "metal": 2586,
      "metric": 2587,
      "xx": 2588,
      "users": 2589,
      "autoscaling": 2590,
      "ali": 2591,
      "OUTPUT": 2592,
      "chain": 2593,
      "keycloak": 2594,
      "workers": 2595,
      "console": 2596,
      "ĠKafka": 2597,
      "disable": 2598,
      "ĠThis": 2599,
      "ident": 2600,
      "Token": 2601,
      "fluxcd": 2602,
      "DATA": 2603,
      "ward": 2604,
      "ansible": 2605,
      "Mana": 2606,
      "57": 2607,
      "sessionAffinity": 2608,
      "Int": 2609,
      "MICRO": 2610,
      "dap": 2611,
      "tpu": 2612,
      "ify": 2613,
      "ts": 2614,
      "unix": 2615,
      "phase": 2616,
      "Ġ{": 2617,
      "Ġsleep": 2618,
      "serva": 2619,
      "sw": 2620,
      "Ġinformation": 2621,
      "accounts": 2622,
      "Ġnumber": 2623,
      "argoproj": 2624,
      "orizon": 2625,
      "aks": 2626,
      "pusher": 2627,
      "Enable": 2628,
      "topic": 2629,
      "tpus": 2630,
      "GER": 2631,
      "reddit": 2632,
      "volumeClaim": 2633,
      "46": 2634,
      "observa": 2635,
      "Lo": 2636,
      "Templates": 2637,
      "Ġfrom": 2638,
      "inte": 2639,
      "Target": 2640,
      "down": 2641,
      "generate": 2642,
      "Delet": 2643,
      "stringData": 2644,
      "cl": 2645,
      "59": 2646,
      "draft": 2647,
      "helloworld": 2648,
      "lable": 2649,
      "567": 2650,
      "ould": 2651,
      "sockets": 2652,
      "static": 2653,
      "influx": 2654,
      "urrent": 2655,
      "cept": 2656,
      "2021": 2657,
      "ache": 2658,
      "autoscaler": 2659,
      "orizontal": 2660,
      "wso": 2661,
      "blob": 2662,
      "foo": 2663,
      "imum": 2664,
      "observability": 2665,
      "LA": 2666,
      "wei": 2667,
      "Profile": 2668,
      "tostderr": 2669,
      "bootstrap": 2670,
      "buckets": 2671,
      "DA": 2672,
      "41": 2673,
      "acceler": 2674,
      "guest": 2675,
      "ĠAPI": 2676,
      "ibana": 2677,
      "ature": 2678,
      "las": 2679,
      "dshm": 2680,
      "reg": 2681,
      "nul": 2682,
      "REPO": 2683,
      "dk": 2684,
      "put": 2685,
      "CP": 2686,
      "CLO": 2687,
      "pem": 2688,
      "DRI": 2689,
      "ITE": 2690,
      "ITY": 2691,
      "REGISTR": 2692,
      "ier": 2693,
      "istri": 2694,
      "ware": 2695,
      "stash": 2696,
      "vip": 2697,
      "high": 2698,
      "DRIVER": 2699,
      "jector": 2700,
      "27017": 2701,
      "Ġ&": 2702,
      "pipelinerun": 2703,
      "SCH": 2704,
      "basic": 2705,
      "nullable": 2706,
      "STRI": 2707,
      "pr": 2708,
      "qual": 2709,
      "bundle": 2710,
      "ination": 2711,
      "LOC": 2712,
      "Ġ'": 2713,
      "enterprise": 2714,
      "RunAs": 2715,
      "allel": 2716,
      "ku": 2717,
      "ero": 2718,
      "route": 2719,
      "views": 2720,
      "andom": 2721,
      "exp": 2722,
      "mx": 2723,
      "upy": 2724,
      "attern": 2725,
      "LAB": 2726,
      "ARD": 2727,
      "allenge": 2728,
      "observedGeneration": 2729,
      "webapp": 2730,
      "hile": 2731,
      "TIMEOUT": 2732,
      "/$(": 2733,
      "pipelineruns": 2734,
      "jupy": 2735,
      "TY": 2736,
      "INFO": 2737,
      "aci": 2738,
      "Ġshould": 2739,
      "scripts": 2740,
      "weight": 2741,
      "At": 2742,
      "Iss": 2743,
      "quota": 2744,
      "updateStrategy": 2745,
      "sink": 2746,
      "kibana": 2747,
      "accelerator": 2748,
      "jupyter": 2749,
      "355": 2750,
      "CONNECT": 2751,
      "ACME": 2752,
      "Logs": 2753,
      "Issuer": 2754,
      "commun": 2755,
      "97": 2756,
      "mentation": 2757,
      "Reason": 2758,
      "SK": 2759,
      "ky": 2760,
      "62": 2761,
      "volumeClaimTemplates": 2762,
      "JECT": 2763,
      "scaler": 2764,
      "successful": 2765,
      "sitory": 2766,
      "mail": 2767,
      "random": 2768,
      "pag": 2769,
      "XY": 2770,
      "Application": 2771,
      "nats": 2772,
      "Ġ1": 2773,
      "nti": 2774,
      "Ġas": 2775,
      "eth": 2776,
      "pull": 2777,
      "tty": 2778,
      "XX": 2779,
      "fd": 2780,
      "process": 2781,
      "new": 2782,
      "Ġpods": 2783,
      "reviews": 2784,
      "Ma": 2785,
      "ingresses": 2786,
      "ĠA": 2787,
      "podA": 2788,
      "metry": 2789,
      "report": 2790,
      "apply": 2791,
      "amd": 2792,
      "clean": 2793,
      "ZI": 2794,
      "stra": 2795,
      "microsoft": 2796,
      "stand": 2797,
      "Inter": 2798,
      "US": 2799,
      "meter": 2800,
      "PS": 2801,
      "aqu": 2802,
      "ntiAffinity": 2803,
      "mul": 2804,
      "150": 2805,
      "UN": 2806,
      "ref": 2807,
      "reload": 2808,
      "injector": 2809,
      "conversion": 2810,
      "glob": 2811,
      "byte": 2812,
      "lers": 2813,
      "resourceNames": 2814,
      "Ġconfigures": 2815,
      "78": 2816,
      "797": 2817,
      "hip": 2818,
      "schedulerName": 2819,
      "Ġuse": 2820,
      "logtostderr": 2821,
      "pic": 2822,
      "accept": 2823,
      "mult": 2824,
      "ave": 2825,
      "configur": 2826,
      "Er": 2827,
      "stored": 2828,
      "CI": 2829,
      "engin": 2830,
      "authentication": 2831,
      "MENT": 2832,
      "ENABLED": 2833,
      "ating": 2834,
      "consumer": 2835,
      "adb": 2836,
      "MZI": 2837,
      "STRIMZI": 2838,
      "podAntiAffinity": 2839,
      "context": 2840,
      "testing": 2841,
      "Error": 2842,
      "datasources": 2843,
      "TER": 2844,
      "pipe": 2845,
      "recei": 2846,
      "gce": 2847,
      "Condition": 2848,
      "cfg": 2849,
      "Enabled": 2850,
      "lization": 2851,
      "preferred": 2852,
      ".*": 2853,
      "Ġsign": 2854,
      "9999": 2855,
      "wordpress": 2856,
      "PEER": 2857,
      "fil": 2858,
      "indic": 2859,
      "audit": 2860,
      "router": 2861,
      "ĠP": 2862,
      "Ġ&&": 2863,
      "ozone": 2864,
      "replicasets": 2865,
      "ATA": 2866,
      "ubunt": 2867,
      "nodeSelectorTer": 2868,
      "nodeSelectorTerms": 2869,
      "notific": 2870,
      "maven": 2871,
      "readiness": 2872,
      "claims": 2873,
      "ollection": 2874,
      "connection": 2875,
      "PROXY": 2876,
      "ship": 2877,
      "syn": 2878,
      "rout": 2879,
      "du": 2880,
      "ubuntu": 2881,
      "ĠB": 2882,
      "Refer": 2883,
      "trans": 2884,
      "oop": 2885,
      "perf": 2886,
      "func": 2887,
      "REGISTRY": 2888,
      "07": 2889,
      "upgra": 2890,
      "Fields": 2891,
      "scription": 2892,
      "\\\\": 2893,
      "VA": 2894,
      "tables": 2895,
      "URCE": 2896,
      "Log": 2897,
      "')].": 2898,
      "jenkinsx": 2899,
      "mis": 2900,
      "utor": 2901,
      "vailability": 2902,
      "hostpath": 2903,
      "star": 2904,
      "addr": 2905,
      "machine": 2906,
      "arm": 2907,
      "Ġserver": 2908,
      "TYPE": 2909,
      "ĠSchema": 2910,
      "pagation": 2911,
      "Ġcurrent": 2912,
      "bran": 2913,
      "successfulJobsHistoryLimit": 2914,
      "149": 2915,
      "=:": 2916,
      "af": 2917,
      "faas": 2918,
      "migrations": 2919,
      "Ġ--": 2920,
      "=='": 2921,
      "complet": 2922,
      "dum": 2923,
      "PID": 2924,
      "HTTPS": 2925,
      "templates": 2926,
      "AG": 2927,
      "LABEL": 2928,
      "IR": 2929,
      "automated": 2930,
      "bb": 2931,
      "operators": 2932,
      "3600": 2933,
      "lon": 2934,
      "tes": 2935,
      "2000": 2936,
      "pattern": 2937,
      "ction": 2938,
      "php": 2939,
      "Web": 2940,
      "Ġpod": 2941,
      "ints": 2942,
      "ether": 2943,
      "influxdb": 2944,
      "96": 2945,
      "Types": 2946,
      "serviceaccounts": 2947,
      "apache": 2948,
      "activeDeadlineSeconds": 2949,
      "RAN": 2950,
      "ubernetes": 2951,
      "DNS": 2952,
      "Ġcontrol": 2953,
      "contour": 2954,
      "9797": 2955,
      "ĠĠĠĠ": 2956,
      "Uti": 2957,
      "tx": 2958,
      "wait": 2959,
      "Loc": 2960,
      "amazonaws": 2961,
      "58": 2962,
      "istribut": 2963,
      "URE": 2964,
      "Execute": 2965,
      "ere": 2966,
      "NoExecute": 2967,
      "engine": 2968,
      "generation": 2969,
      "Utilization": 2970,
      "some": 2971,
      "PRE": 2972,
      "AIN": 2973,
      "logstash": 2974,
      "Ġif": 2975,
      "wind": 2976,
      "seccomp": 2977,
      "workingDir": 2978,
      "while": 2979,
      "TEM": 2980,
      "04": 2981,
      "Ġpro": 2982,
      "Ġversion": 2983,
      "Link": 2984,
      "global": 2985,
      "ED": 2986,
      "benchmark": 2987,
      "nary": 2988,
      "servicemesh": 2989,
      "App": 2990,
      "jenkinsxio": 2991,
      "guestbook": 2992,
      "sol": 2993,
      "irror": 2994,
      "mari": 2995,
      "Count": 2996,
      "ows": 2997,
      "55555555": 2998,
      "DER": 2999,
      "play": 3000,
      "Propagation": 3001,
      "Ġspecifi": 3002,
      "VI": 3003,
      "ink": 3004,
      "ledger": 3005,
      "Auto": 3006,
      "uti": 3007,
      "overri": 3008,
      "www": 3009,
      "cb": 3010,
      "configurations": 3011,
      "samples": 3012,
      "iled": 3013,
      "GF": 3014,
      "replication": 3015,
      "std": 3016,
      "curl": 3017,
      "Ġt": 3018,
      "EM": 3019,
      "torch": 3020,
      "dapr": 3021,
      "Oper": 3022,
      "acme": 3023,
      "STOR": 3024,
      "parallel": 3025,
      "tics": 3026,
      "allowed": 3027,
      "Ġtype": 3028,
      "tribut": 3029,
      "count": 3030,
      "sla": 3031,
      "allback": 3032,
      "ĠT": 3033,
      "simple": 3034,
      "vot": 3035,
      "registrar": 3036,
      "Ġm": 3037,
      "tributes": 3038,
      "Pass": 3039,
      "persistentvolume": 3040,
      "Stop": 3041,
      "dsa": 3042,
      "Ġ}}/": 3043,
      "Ġcertificate": 3044,
      "olds": 3045,
      "ification": 3046,
      "ERT": 3047,
      "Do": 3048,
      "mountPropagation": 3049,
      "efs": 3050,
      "rollou": 3051,
      "airflow": 3052,
      "CLOUD": 3053,
      "loki": 3054,
      "redir": 3055,
      "mary": 3056,
      "800": 3057,
      "1024": 3058,
      "persistentvolumeclaims": 3059,
      "frame": 3060,
      "ecollection": 3061,
      "kf": 3062,
      "OG": 3063,
      "CUR": 3064,
      "Source": 3065,
      "FS": 3066,
      "kar": 3067,
      "hostPID": 3068,
      "see": 3069,
      "deletecollection": 3070,
      "ectl": 3071,
      "65534": 3072,
      "had": 3073,
      "CATA": 3074,
      "ound": 3075,
      "ences": 3076,
      "cart": 3077,
      "selfLink": 3078,
      "75": 3079,
      "ga": 3080,
      "HER": 3081,
      "Ġindic": 3082,
      "bes": 3083,
      "accepted": 3084,
      "kubectl": 3085,
      "creds": 3086,
      "voting": 3087,
      "BASE": 3088,
      "nodejs": 3089,
      ":/": 3090,
      "runAsGroup": 3091,
      "CATALOG": 3092,
      "MT": 3093,
      "may": 3094,
      "statefulsets": 3095,
      "GR": 3096,
      "Des": 3097,
      "ecdsa": 3098,
      "NetworkPolicy": 3099,
      "ipv": 3100,
      "preStop": 3101,
      "clou": 3102,
      "mcr": 3103,
      "ruption": 3104,
      "Ġholds": 3105,
      ":///": 3106,
      "loadBalancer": 3107,
      "50051": 3108,
      "..": 3109,
      "webs": 3110,
      "MQ": 3111,
      "cid": 3112,
      "ances": 3113,
      "ipeline": 3114,
      "MINIO": 3115,
      "redirect": 3116,
      "comment": 3117,
      "arb": 3118,
      "0000": 3119,
      "Ġor": 3120,
      "Ġimage": 3121,
      "STORAGE": 3122,
      "han": 3123,
      "disp": 3124,
      "rs": 3125,
      "availability": 3126,
      "non": 3127,
      "ros": 3128,
      "login": 3129,
      "hadoop": 3130,
      "ism": 3131,
      "pytorch": 3132,
      "Ġecho": 3133,
      "single": 3134,
      "LOW": 3135,
      "hyperledger": 3136,
      "Ġch": 3137,
      "replica": 3138,
      "ange": 3139,
      "PROJECT": 3140,
      "Specific": 3141,
      "cockroachdb": 3142,
      "oss": 3143,
      "updat": 3144,
      "nant": 3145,
      "UI": 3146,
      "mt": 3147,
      "history": 3148,
      "KUBECONFIG": 3149,
      "Imple": 3150,
      "Address": 3151,
      "Implementation": 3152,
      "pon": 3153,
      "cached": 3154,
      "09": 3155,
      "tensor": 3156,
      "xyz": 3157,
      "\"}": 3158,
      "aggregate": 3159,
      "input": 3160,
      "feature": 3161,
      "terminationMessagePath": 3162,
      "related": 3163,
      "srv": 3164,
      "RING": 3165,
      "framework": 3166,
      "OGLE": 3167,
      "ImplementationSpecific": 3168,
      "fle": 3169,
      "Server": 3170,
      "GOOGLE": 3171,
      "'s": 3172,
      "ponent": 3173,
      "Any": 3174,
      "Delete": 3175,
      "ĠF": 3176,
      "upstream": 3177,
      "gluster": 3178,
      "podAffinity": 3179,
      "Webhook": 3180,
      "sphere": 3181,
      "ndpoint": 3182,
      "Cre": 3183,
      "cmk": 3184,
      "persistentVolume": 3185,
      "profile": 3186,
      "aper": 3187,
      "longhorn": 3188,
      "total": 3189,
      "generateName": 3190,
      "KIND": 3191,
      "devops": 3192,
      "brid": 3193,
      "with": 3194,
      "CR": 3195,
      "mariadb": 3196,
      "wd": 3197,
      "doc": 3198,
      "PLATE": 3199,
      "TEMPLATE": 3200,
      "02": 3201,
      "fly": 3202,
      "WE": 3203,
      "dog": 3204,
      "Block": 3205,
      "SA": 3206,
      "SPRING": 3207,
      "etr": 3208,
      "ruct": 3209,
      "identity": 3210,
      "created": 3211,
      "ved": 3212,
      "Autoscaler": 3213,
      "08": 3214,
      "failed": 3215,
      "ai": 3216,
      "ick": 3217,
      "METRICS": 3218,
      "Fallback": 3219,
      "por": 3220,
      "ReclaimPolicy": 3221,
      "controllers": 3222,
      "location": 3223,
      "storag": 3224,
      "94": 3225,
      "interval": 3226,
      "persistentVolumeReclaimPolicy": 3227,
      "9100": 3228,
      "OnError": 3229,
      "minReady": 3230,
      "seeker": 3231,
      "mini": 3232,
      "subscription": 3233,
      "PodAutoscaler": 3234,
      "ToLogs": 3235,
      "FallbackToLogs": 3236,
      "FallbackToLogsOnError": 3237,
      "ini": 3238,
      "period": 3239,
      "PLA": 3240,
      "fsType": 3241,
      "RunAsAny": 3242,
      "hostIP": 3243,
      "roles": 3244,
      "settings": 3245,
      "don": 3246,
      "20200": 3247,
      "upgrade": 3248,
      "sist": 3249,
      "clouds": 3250,
      "101": 3251,
      "keys": 3252,
      "gar": 3253,
      "ne": 3254,
      "virtual": 3255,
      "SYS": 3256,
      "reader": 3257,
      "triggers": 3258,
      "TargetRef": 3259,
      "apping": 3260,
      "aw": 3261,
      "SET": 3262,
      "Horizontal": 3263,
      "Ġissuer": 3264,
      "BACK": 3265,
      "JA": 3266,
      "vsphere": 3267,
      "lane": 3268,
      "community": 3269,
      "df": 3270,
      "HOME": 3271,
      "varlog": 3272,
      "readyz": 3273,
      "Linux": 3274,
      "maxReplicas": 3275,
      "HorizontalPodAutoscaler": 3276,
      "branch": 3277,
      "1025": 3278,
      "Endpoint": 3279,
      "GC": 3280,
      "minReadySeconds": 3281,
      "VAL": 3282,
      "Ġat": 3283,
      "minReplicas": 3284,
      "board": 3285,
      "options": 3286,
      "kit": 3287,
      "storagec": 3288,
      "weave": 3289,
      "bp": 3290,
      "nat": 3291,
      "DD": 3292,
      "instal": 3293,
      "Ġcertificates": 3294,
      "scaleTargetRef": 3295,
      "05": 3296,
      "76": 3297,
      "XM": 3298,
      "podIP": 3299,
      "javascript": 3300,
      "/.": 3301,
      "Password": 3302,
      "Ob": 3303,
      "KEE": 3304,
      "vote": 3305,
      "Connect": 3306,
      "Ġcontainer": 3307,
      "networkservicemesh": 3308,
      "vp": 3309,
      "cidr": 3310,
      "preferredDuringSchedulingIgnoredDuringExecution": 3311,
      "activ": 3312,
      "03": 3313,
      "eder": 3314,
      "content": 3315,
      "azu": 3316,
      "123": 3317,
      "querier": 3318,
      "pack": 3319,
      "cherry": 3320,
      "82": 3321,
      "war": 3322,
      "appro": 3323,
      "VC": 3324,
      "350": 3325,
      "Bu": 3326,
      "serviceaccount": 3327,
      "entrypoint": 3328,
      "integr": 3329,
      "NC": 3330,
      "windows": 3331,
      "tun": 3332,
      "lassi": 3333,
      "215": 3334,
      "den": 3335,
      "intel": 3336,
      "memcached": 3337,
      "plank": 3338,
      "STORE": 3339,
      "Review": 3340,
      "addonmanager": 3341,
      "06": 3342,
      "PC": 3343,
      "Ġen": 3344,
      "Ġuser": 3345,
      "ell": 3346,
      "track": 3347,
      "cherrypic": 3348,
      "Reconci": 3349,
      "issuerRef": 3350,
      "apim": 3351,
      "unsp": 3352,
      "SITE": 3353,
      "face": 3354,
      "LOGG": 3355,
      "rsrc": 3356,
      "analytics": 3357,
      "multic": 3358,
      "lash": 3359,
      "Pipeline": 3360,
      "slave": 3361,
      "defaults": 3362,
      "Size": 3363,
      "ationSeconds": 3364,
      "Ġ|": 3365,
      "checksum": 3366,
      "extra": 3367,
      "standard": 3368,
      "STRE": 3369,
      "Ġrequest": 3370,
      "Retain": 3371,
      "clientConfig": 3372,
      "notification": 3373,
      "scan": 3374,
      "struct": 3375,
      "servers": 3376,
      "MO": 3377,
      "IAL": 3378,
      "nip": 3379,
      "DASH": 3380,
      "LOGGING": 3381,
      "pen": 3382,
      "healthy": 3383,
      "condition": 3384,
      "ReviewVersions": 3385,
      "By": 3386,
      "SHA": 3387,
      "daemonsets": 3388,
      "86": 3389,
      "dation": 3390,
      "multi": 3391,
      "reaper": 3392,
      "aniz": 3393,
      "operation": 3394,
      "ecore": 3395,
      "4000": 3396,
      "CPU": 3397,
      "eu": 3398,
      "develop": 3399,
      "javascriptdocker": 3400,
      "ĠE": 3401,
      "mal": 3402,
      "lem": 3403,
      "trac": 3404,
      "COL": 3405,
      "BUG": 3406,
      "STREAM": 3407,
      "Replica": 3408,
      "how": 3409,
      "ync": 3410,
      "iot": 3411,
      "WORK": 3412,
      "unsplash": 3413,
      "older": 3414,
      "mut": 3415,
      "INST": 3416,
      "MI": 3417,
      "persistentvolumes": 3418,
      "Reconcile": 3419,
      "seLinux": 3420,
      "region": 3421,
      "volumeMode": 3422,
      "fter": 3423,
      "messaging": 3424,
      "parallelism": 3425,
      "elix": 3426,
      "INTER": 3427,
      "Definitions": 3428,
      "\",\"": 3429,
      "rat": 3430,
      "BOARD": 3431,
      "fb": 3432,
      "secon": 3433,
      "ouch": 3434,
      "DU": 3435,
      "LER": 3436,
      "jan": 3437,
      "recom": 3438,
      "velero": 3439,
      "hu": 3440,
      "509": 3441,
      "ĠV": 3442,
      "uator": 3443,
      "Ġex": 3444,
      "connector": 3445,
      "Interval": 3446,
      "vars": 3447,
      "91": 3448,
      "rl": 3449,
      "resnet": 3450,
      "minimum": 3451,
      "Head": 3452,
      "92": 3453,
      "Back": 3454,
      "flink": 3455,
      "SKIP": 3456,
      "wh": 3457,
      "acceptedNames": 3458,
      "Ġ>": 3459,
      "TES": 3460,
      "storedVersions": 3461,
      "Of": 3462,
      "kubes": 3463,
      "Component": 3464,
      "nv": 3465,
      "actuator": 3466,
      "Ġb": 3467,
      "Ġe": 3468,
      "ech": 3469,
      "kubevirt": 3470,
      "executor": 3471,
      "graphql": 3472,
      "ary": 3473,
      "ĠKubernetes": 3474,
      "Workload": 3475,
      "valid": 3476,
      "classi": 3477,
      "Ġevent": 3478,
      "93": 3479,
      "spro": 3480,
      "Ġresources": 3481,
      "layer": 3482,
      "Tra": 3483,
      "inder": 3484,
      "attach": 3485,
      "next": 3486,
      "172": 3487,
      "cloudsql": 3488,
      "dru": 3489,
      "pki": 3490,
      "Desired": 3491,
      "Metr": 3492,
      "ctl": 3493,
      "heap": 3494,
      "instances": 3495,
      "DUM": 3496,
      "DS": 3497,
      "hard": 3498,
      "ous": 3499,
      "Operator": 3500,
      "mas": 3501,
      "groups": 3502,
      "Ġcondition": 3503,
      "note": 3504,
      "GET": 3505,
      "available": 3506,
      "wer": 3507,
      "cona": 3508,
      "healthcheck": 3509,
      "bpf": 3510,
      "9092": 3511,
      "ldap": 3512,
      "Ġapplication": 3513,
      "canary": 3514,
      "tenant": 3515,
      "BROKER": 3516,
      "SNA": 3517,
      "tolerationSeconds": 3518,
      "SCHEMA": 3519,
      "cherrypicker": 3520,
      "media": 3521,
      "mote": 3522,
      "fk": 3523,
      "gger": 3524,
      "nder": 3525,
      "ONE": 3526,
      "WN": 3527,
      "DUMMY": 3528,
      "JW": 3529,
      "progress": 3530,
      "txt": 3531,
      "1090": 3532,
      "DASHBOARD": 3533,
      "kong": 3534,
      "developer": 3535,
      "seldon": 3536,
      "CK": 3537,
      "wi": 3538,
      "Ġconditions": 3539,
      "reloader": 3540,
      "72": 3541,
      "amq": 3542,
      "repository": 3543,
      "verse": 3544,
      "mb": 3545,
      "Headers": 3546,
      "OPT": 3547,
      "projected": 3548,
      "201": 3549,
      "flex": 3550,
      "NAL": 3551,
      "percona": 3552,
      "shipping": 3553,
      "VE": 3554,
      "guard": 3555,
      "confi": 3556,
      "admissionregistration": 3557,
      "Le": 3558,
      "clone": 3559,
      "4444": 3560,
      "cor": 3561,
      "Ġsecret": 3562,
      "portal": 3563,
      "9200": 3564,
      "QUE": 3565,
      "zu": 3566,
      "heapster": 3567,
      "AINER": 3568,
      "stats": 3569,
      "IF": 3570,
      "storageclass": 3571,
      "9443": 3572,
      "gex": 3573,
      "function": 3574,
      "routes": 3575,
      "Ġnot": 3576,
      "house": 3577,
      "west": 3578,
      "misc": 3579,
      "shm": 3580,
      "range": 3581,
      "Ġdone": 3582,
      "none": 3583,
      "telemetry": 3584,
      "tw": 3585,
      "ĠCertificate": 3586,
      "tensorflow": 3587,
      "rollem": 3588,
      "CONTAINER": 3589,
      "githuboauth": 3590,
      "MAX": 3591,
      "Ġcustom": 3592,
      "8082": 3593,
      "WEB": 3594,
      "KUBER": 3595,
      "Attributes": 3596,
      "squ": 3597,
      "WIT": 3598,
      "robot": 3599,
      "providers": 3600,
      "LICATION": 3601,
      "Qu": 3602,
      "NETES": 3603,
      "Local": 3604,
      "KUBERNETES": 3605,
      "coord": 3606,
      "74": 3607,
      "openstack": 3608,
      "MIT": 3609,
      "col": 3610,
      "ifest": 3611,
      "dummy": 3612,
      "ste": 3613,
      "95": 3614,
      "alb": 3615,
      "infod": 3616,
      "PipelineRun": 3617,
      "lient": 3618,
      "prefix": 3619,
      "pk": 3620,
      "forward": 3621,
      "Kube": 3622,
      "httpHeaders": 3623,
      "digi": 3624,
      "HOT": 3625,
      "Ġspecifies": 3626,
      "glusterfs": 3627,
      "openfaas": 3628,
      "big": 3629,
      "mental": 3630,
      "let": 3631,
      "less": 3632,
      "WR": 3633,
      "XD": 3634,
      "Ġf": 3635,
      "ABLE": 3636,
      "BROW": 3637,
      "wt": 3638,
      "ditions": 3639,
      "BROWSER": 3640,
      "Ġwhether": 3641,
      "tt": 3642,
      "kubebuilder": 3643,
      "HUB": 3644,
      "jo": 3645,
      "LD": 3646,
      "GIN": 3647,
      "Release": 3648,
      "works": 3649,
      "768": 3650,
      "podinfod": 3651,
      "ORY": 3652,
      "CONNECTION": 3653,
      "PLACE": 3654,
      "73": 3655,
      "components": 3656,
      "SNAPS": 3657,
      "reclaimPolicy": 3658,
      "JEN": 3659,
      "verage": 3660,
      "pan": 3661,
      "83": 3662,
      "Ġwhen": 3663,
      "EMAIL": 3664,
      "Ġdata": 3665,
      "ND": 3666,
      "rh": 3667,
      "KINS": 3668,
      "JENKINS": 3669,
      "Us": 3670,
      "vari": 3671,
      "live": 3672,
      "ĠThe": 3673,
      "Ġhow": 3674,
      "Ġ$": 3675,
      "fier": 3676,
      "kafk": 3677,
      "Ġ0": 3678,
      "ban": 3679,
      "skip": 3680,
      "tracing": 3681,
      "SNAPSHOT": 3682,
      "MSP": 3683,
      "Ġwhere": 3684,
      "linic": 3685,
      "eks": 3686,
      "helmfile": 3687,
      "OS": 3688,
      "arbor": 3689,
      "plemental": 3690,
      "kfserving": 3691,
      "rbd": 3692,
      "ami": 3693,
      "notebook": 3694,
      "respon": 3695,
      "Ġcan": 3696,
      "hive": 3697,
      "Conditions": 3698,
      "STAT": 3699,
      "lot": 3700,
      "cored": 3701,
      "Ġobject": 3702,
      "Report": 3703,
      "bridge": 3704,
      "HA": 3705,
      "sd": 3706,
      "servic": 3707,
      "ACT": 3708,
      "bc": 3709,
      "egress": 3710,
      "harbor": 3711,
      "unb": 3712,
      "smb": 3713,
      "raw": 3714,
      "SYST": 3715,
      "84": 3716,
      "Ġdefault": 3717,
      "centraldashboard": 3718,
      "SYSTEM": 3719,
      "Certificate": 3720,
      "nsm": 3721,
      "side": 3722,
      "supplemental": 3723,
      "det": 3724,
      "remote": 3725,
      "bf": 3726,
      "kan": 3727,
      "Ġaddress": 3728,
      "5678": 3729,
      "namespaceSelector": 3730,
      "nce": 3731,
      "Ġtarget": 3732,
      "LECT": 3733,
      "FLU": 3734,
      "stdin": 3735,
      "142": 3736,
      "oam": 3737,
      "STACK": 3738,
      "ROL": 3739,
      "Range": 3740,
      "Ġhttps": 3741,
      "heme": 3742,
      "vert": 3743,
      "Ġv": 3744,
      "profiles": 3745,
      "jxboot": 3746,
      "distribut": 3747,
      "ords": 3748,
      "datadog": 3749,
      "unit": 3750,
      "traffic": 3751,
      "Ġ[": 3752,
      "confirm": 3753,
      "airbyte": 3754,
      "petc": 3755,
      "site": 3756,
      "todo": 3757,
      "185": 3758,
      "crypto": 3759,
      "Over": 3760,
      "ng": 3761,
      "Ġspecification": 3762,
      "REGION": 3763,
      "**": 3764,
      "tests": 3765,
      "black": 3766,
      "CILI": 3767,
      "bind": 3768,
      "vict": 3769,
      "rea": 3770,
      "ten": 3771,
      "Term": 3772,
      "WITH": 3773,
      "357": 3774,
      "bert": 3775,
      "automount": 3776,
      "receive": 3777,
      "blue": 3778,
      "coredns": 3779,
      "71": 3780,
      "ocp": 3781,
      "uni": 3782,
      "rolebindings": 3783,
      "completions": 3784,
      "COR": 3785,
      "kon": 3786,
      "lp": 3787,
      "CRED": 3788,
      "nex": 3789,
      "podAffinityTerm": 3790,
      "External": 3791,
      "Ġrefer": 3792,
      "20220": 3793,
      "chaos": 3794,
      "Event": 3795,
      "elect": 3796,
      "qualifi": 3797,
      "dispatch": 3798,
      "gw": 3799,
      "kurl": 3800,
      "aggreg": 3801,
      "petclinic": 3802,
      "fx": 3803,
      "real": 3804,
      "PUB": 3805,
      "Virt": 3806,
      "blog": 3807,
      "issu": 3808,
      "manual": 3809,
      "ji": 3810,
      "ROOK": 3811,
      "ServiceAccountToken": 3812,
      "Start": 3813,
      "manifest": 3814,
      "ENTIAL": 3815,
      "bindings": 3816,
      "statefulset": 3817,
      "bar": 3818,
      "assist": 3819,
      "CREDENTIAL": 3820,
      "ador": 3821,
      "hemeral": 3822,
      "Ġusing": 3823,
      "provisioning": 3824,
      "orders": 3825,
      "Ġpolicy": 3826,
      "CONTROL": 3827,
      "BIT": 3828,
      "iness": 3829,
      "leases": 3830,
      "assador": 3831,
      "wr": 3832,
      "eng": 3833,
      "2019": 3834,
      "infrastruct": 3835,
      "CREATE": 3836,
      "recommen": 3837,
      "wget": 3838,
      "iov": 3839,
      "flask": 3840,
      "automountServiceAccountToken": 3841,
      "kfc": 3842,
      "arkus": 3843,
      "TR": 3844,
      "8001": 3845,
      "cip": 3846,
      "earch": 3847,
      "coin": 3848,
      "2222": 3849,
      "kfctl": 3850,
      "ina": 3851,
      "encrypt": 3852,
      "progressDeadlineSeconds": 3853,
      "tm": 3854,
      "Level": 3855,
      "signal": 3856,
      "Init": 3857,
      "Ġoperator": 3858,
      "quarkus": 3859,
      "mcp": 3860,
      "APPLICATION": 3861,
      "Reference": 3862,
      "Ġcreated": 3863,
      "dyna": 3864,
      "ait": 3865,
      "Url": 3866,
      "AZ": 3867,
      "Quota": 3868,
      "microservice": 3869,
      "projects": 3870,
      "DOC": 3871,
      "customresource": 3872,
      "Groups": 3873,
      "LIST": 3874,
      "website": 3875,
      "mn": 3876,
      "Ġreplicas": 3877,
      "apis": 3878,
      "customresourcedefinitions": 3879,
      "BOT": 3880,
      "555": 3881,
      "3333": 3882,
      "xd": 3883,
      "gistry": 3884,
      "cen": 3885,
      "Wh": 3886,
      "iller": 3887,
      "metallb": 3888,
      "Uri": 3889,
      "INK": 3890,
      "GEN": 3891,
      "vmware": 3892,
      "Ġgeneration": 3893,
      "contin": 3894,
      "phere": 3895,
      "359": 3896,
      "rollout": 3897,
      "lang": 3898,
      "targetRef": 3899,
      "param": 3900,
      "Client": 3901,
      "rpc": 3902,
      "labs": 3903,
      "ender": 3904,
      "ROUT": 3905,
      "Priority": 3906,
      "Me": 3907,
      "Ġcontrols": 3908,
      "ZE": 3909,
      "ĠConnect": 3910,
      "Traffic": 3911,
      "Check": 3912,
      "ling": 3913,
      "Ġservice": 3914,
      "CHEC": 3915,
      "*/": 3916,
      "kubia": 3917,
      "policyTypes": 3918,
      "recommendation": 3919,
      "After": 3920,
      "pres": 3921,
      "Ġ2": 3922,
      "STIC": 3923,
      "SOURCE": 3924,
      "Metrics": 3925,
      "datasets": 3926,
      "ris": 3927,
      "BAC": 3928,
      "spi": 3929,
      "openmcp": 3930,
      "pluginproxy": 3931,
      "rele": 3932,
      "kubesphere": 3933,
      "Ġsub": 3934,
      "stage": 3935,
      "import": 3936,
      "TOP": 3937,
      "sitecore": 3938,
      "table": 3939,
      "ites": 3940,
      "startup": 3941,
      "CHECK": 3942,
      "ssd": 3943,
      "12345678": 3944,
      "JWT": 3945,
      "delay": 3946,
      "Ġsource": 3947,
      "attacher": 3948,
      "omer": 3949,
      "aqua": 3950,
      "ves": 3951,
      "azurefile": 3952,
      "mat": 3953,
      "etest": 3954,
      "ephemeral": 3955,
      "CERT": 3956,
      "slo": 3957,
      "MS": 3958,
      "QU": 3959,
      "ctr": 3960,
      "noob": 3961,
      "del": 3962,
      "DEBUG": 3963,
      "VENT": 3964,
      "eeded": 3965,
      "Security": 3966,
      "gest": 3967,
      "REPLACE": 3968,
      "training": 3969,
      "FE": 3970,
      "mpps": 3971,
      "HERO": 3972,
      "RAB": 3973,
      "1001": 3974,
      "SCHEMAHERO": 3975,
      "RABBIT": 3976,
      "dest": 3977,
      "webserver": 3978,
      "Tiller": 3979,
      "lets": 3980,
      "filesystem": 3981,
      "lick": 3982,
      "VERSIONSTREAM": 3983,
      "Ġrecords": 3984,
      "hmpps": 3985,
      "business": 3986,
      "current": 3987,
      "ARCH": 3988,
      "daemonset": 3989,
      "game": 3990,
      "installer": 3991,
      "1234567890": 3992,
      "ĠPro": 3993,
      "MG": 3994,
      "appli": 3995,
      "ATED": 3996,
      "jec": 3997,
      "yg": 3998,
      "JAVA": 3999,
      "Ġindicates": 4000,
      "ANN": 4001,
      "scsi": 4002,
      "ORG": 4003,
      "Kafka": 4004,
      "applications": 4005,
      "Label": 4006,
      "webhookconfigurations": 4007,
      "dep": 4008,
      "boo": 4009,
      "migration": 4010,
      "Ad": 4011,
      "Repo": 4012,
      "systemd": 4013,
      "ELA": 4014,
      "AND": 4015,
      "tasks": 4016,
      "wner": 4017,
      "ustomer": 4018,
      "=${": 4019,
      "Ġrun": 4020,
      "Org": 4021,
      "multicluster": 4022,
      "signalfx": 4023,
      "integration": 4024,
      "TOPIC": 4025,
      "restore": 4026,
      "sriov": 4027,
      "cceeded": 4028,
      "redisk": 4029,
      "azuredisk": 4030,
      "ning": 4031,
      "workloads": 4032,
      "Ġapply": 4033,
      "Ġavailable": 4034,
      "CURRE": 4035,
      "Available": 4036,
      "ovn": 4037,
      "card": 4038,
      "FIX": 4039,
      "ReplicaSet": 4040,
      "coded": 4041,
      "ELASTIC": 4042,
      "dkr": 4043,
      "Domain": 4044,
      "market": 4045,
      "CILIUM": 4046,
      "PH": 4047,
      "flan": 4048,
      "yr": 4049,
      "rewrite": 4050,
      "desis": 4051,
      "eda": 4052,
      "dispatcher": 4053,
      "TRA": 4054,
      "md": 4055,
      "pools": 4056,
      "workflows": 4057,
      "IB": 4058,
      "Overri": 4059,
      "Managed": 4060,
      "OPTS": 4061,
      "Ġlast": 4062,
      "ionTime": 4063,
      "filebeat": 4064,
      "spect": 4065,
      "httpd": 4066,
      "Settings": 4067,
      "Ġchallenge": 4068,
      "cred": 4069,
      "sis": 4070,
      "ECD": 4071,
      "gal": 4072,
      "taccess": 4073,
      "ResourceQuota": 4074,
      "untime": 4075,
      "hipster": 4076,
      "hand": 4077,
      "ense": 4078,
      "volumeBinding": 4079,
      "PRODU": 4080,
      "producer": 4081,
      "volumeBindingMode": 4082,
      "With": 4083,
      "Inst": 4084,
      "pipelinesjavascriptdocker": 4085,
      "noobaa": 4086,
      "summary": 4087,
      "logical": 4088,
      "nexus": 4089,
      "Ġtemplate": 4090,
      "Ġall": 4091,
      "nance": 4092,
      "Bud": 4093,
      "usage": 4094,
      "subjec": 4095,
      "kv": 4096,
      "ARGET": 4097,
      "Budget": 4098,
      "XT": 4099,
      "fuse": 4100,
      "Ġnode": 4101,
      "fal": 4102,
      "idir": 4103,
      "straints": 4104,
      "help": 4105,
      "ĠR": 4106,
      "ghts": 4107,
      "DOCKER": 4108,
      "It": 4109,
      "Sub": 4110,
      "only": 4111,
      "Resources": 4112,
      "Ġ=": 4113,
      "ĠIP": 4114,
      "ries": 4115,
      "override": 4116,
      "ĠO": 4117,
      "Ġit": 4118,
      "yes": 4119,
      "PODINFO": 4120,
      "LY": 4121,
      "grou": 4122,
      "Ġmanaged": 4123,
      "centage": 4124,
      "READ": 4125,
      "targets": 4126,
      "AZURE": 4127,
      "regex": 4128,
      "ables": 4129,
      "VID": 4130,
      "classifier": 4131,
      "mqtt": 4132,
      "ART": 4133,
      "susp": 4134,
      "MONGODB": 4135,
      "px": 4136,
      "rail": 4137,
      "ectional": 4138,
      "pac": 4139,
      "AGENT": 4140,
      "Bidir": 4141,
      "vider": 4142,
      "Bidirectional": 4143,
      "\\.": 4144,
      "INIT": 4145,
      "antrea": 4146,
      "continue": 4147,
      "avel": 4148,
      "couch": 4149,
      "Ġdescri": 4150,
      "udp": 4151,
      "EVENT": 4152,
      "OUR": 4153,
      "Runtime": 4154,
      "replicationcontrollers": 4155,
      "customer": 4156,
      "SEARCH": 4157,
      "SIBLE": 4158,
      "Ġrepresenting": 4159,
      "NSM": 4160,
      "Workflow": 4161,
      "Ident": 4162,
      "ĠURL": 4163,
      "iptables": 4164,
      "coordination": 4165,
      "eval": 4166,
      "iter": 4167,
      "duck": 4168,
      "development": 4169,
      "Su": 4170,
      "Ġres": 4171,
      "ruptionBudget": 4172,
      "taccessreviews": 4173,
      "subjectaccessreviews": 4174,
      "peri": 4175,
      "NETWORK": 4176,
      "DisruptionBudget": 4177,
      "keras": 4178,
      "ons": 4179,
      "protector": 4180,
      "GV": 4181,
      "duration": 4182,
      "MAC": 4183,
      "Owner": 4184,
      "null": 4185,
      "nap": 4186,
      "SecretRef": 4187,
      "jit": 4188,
      "Ġ10": 4189,
      "HOSTNAME": 4190,
      "cephfs": 4191,
      "358": 4192,
      "PROFILE": 4193,
      "udev": 4194,
      "insecure": 4195,
      "direct": 4196,
      "Ġ$(": 4197,
      "keyfile": 4198,
      "Ġtimestamp": 4199,
      "Ġ`": 4200,
      "maya": 4201,
      "operations": 4202,
      "ipBlock": 4203,
      "accelerators": 4204,
      "digital": 4205,
      "900": 4206,
      "Registry": 4207,
      "seeder": 4208,
      "kubeedge": 4209,
      "benchmarkId": 4210,
      "frameworkVersion": 4211,
      "Dev": 4212,
      "tomcat": 4213,
      "11111111": 4214,
      "ĠService": 4215,
      "scm": 4216,
      "karavel": 4217,
      "own": 4218,
      "libr": 4219,
      "linkis": 4220,
      "Unk": 4221,
      "/-": 4222,
      "Unknown": 4223,
      "NO": 4224,
      "orderer": 4225,
      "An": 4226,
      "oid": 4227,
      "stores": 4228,
      "Ġdeployment": 4229,
      "stef": 4230,
      "REST": 4231,
      "networkpolicies": 4232,
      "yun": 4233,
      "submit": 4234,
      "RABBITMQ": 4235,
      "rhel": 4236,
      "fore": 4237,
      "7000": 4238,
      "dockerhub": 4239,
      "flyte": 4240,
      "Ġ:": 4241,
      "suspend": 4242,
      "/-/": 4243,
      "tails": 4244,
      "TrafficPolicy": 4245,
      "branchprotector": 4246,
      "TARGET": 4247,
      "jwt": 4248,
      "10000": 4249,
      "extension": 4250,
      "555555555555": 4251,
      "zip": 4252,
      "ae": 4253,
      "ive": 4254,
      "Percentage": 4255,
      "RANCH": 4256,
      ".\\": 4257,
      "nr": 4258,
      "\\\\.\\": 4259,
      "ena": 4260,
      "force": 4261,
      "ĠStatus": 4262,
      "buil": 4263,
      "kuard": 4264,
      "amel": 4265,
      "Ġwas": 4266,
      "retry": 4267,
      "Ġdeploy": 4268,
      "win": 4269,
      "loadbalancer": 4270,
      "ttl": 4271,
      "validator": 4272,
      "anizations": 4273,
      "ĠH": 4274,
      "Ġkey": 4275,
      "rum": 4276,
      "projectcalico": 4277,
      "Bytes": 4278,
      "otus": 4279,
      "cleaner": 4280,
      "XDG": 4281,
      "FLOW": 4282,
      "zure": 4283,
      "ization": 4284,
      "relatedImage": 4285,
      "BRANCH": 4286,
      "PRI": 4287,
      "iko": 4288,
      "rack": 4289,
      "MEM": 4290,
      "require": 4291,
      "download": 4292,
      "infrastructure": 4293,
      "sysc": 4294,
      "checkpoint": 4295,
      "spin": 4296,
      "wal": 4297,
      "ortex": 4298,
      "edit": 4299,
      "KEEPER": 4300,
      "seLinuxOptions": 4301,
      "ANSIBLE": 4302,
      "asec": 4303,
      "345": 4304,
      "TRI": 4305,
      "DEP": 4306,
      "transfor": 4307,
      "Equal": 4308,
      "initcontainer": 4309,
      "PRODUCT": 4310,
      "ala": 4311,
      "Ġadditional": 4312,
      "esspro": 4313,
      "resizer": 4314,
      "privateKey": 4315,
      "10254": 4316,
      "\\\"": 4317,
      "ĠACME": 4318,
      "itch": 4319,
      "orgs": 4320,
      "selen": 4321,
      "stefan": 4322,
      "MAP": 4323,
      "ADER": 4324,
      "110": 4325,
      "LOCAL": 4326,
      "ĠFelix": 4327,
      "rds": 4328,
      "SUB": 4329,
      "pload": 4330,
      "SSL": 4331,
      "PREFIX": 4332,
      "dataset": 4333,
      "cros": 4334,
      "crossp": 4335,
      "essprobe": 4336,
      "crossplane": 4337,
      "ironic": 4338,
      "prodan": 4339,
      "updater": 4340,
      "stefanprodan": 4341,
      "YOUR": 4342,
      "sten": 4343,
      "oun": 4344,
      "fp": 4345,
      "OURCE": 4346,
      "hd": 4347,
      "perty": 4348,
      "centos": 4349,
      "CODE": 4350,
      "nu": 4351,
      "preserveUnknown": 4352,
      "jitsi": 4353,
      "preserveUnknownFields": 4354,
      "^(": 4355,
      "ranges": 4356,
      "cloudfla": 4357,
      "green": 4358,
      "112": 4359,
      "CALL": 4360,
      "Top": 4361,
      "varlib": 4362,
      "setup": 4363,
      "jmx": 4364,
      "ghq": 4365,
      "placement": 4366,
      "ek": 4367,
      "pal": 4368,
      "ANCE": 4369,
      "VISION": 4370,
      "sport": 4371,
      "seconds": 4372,
      "MP": 4373,
      "camel": 4374,
      "aquasec": 4375,
      "mix": 4376,
      "ficial": 4377,
      "hase": 4378,
      "mc": 4379,
      "bout": 4380,
      "SIZE": 4381,
      "cos": 4382,
      "cgroup": 4383,
      "Ġy": 4384,
      "official": 4385,
      "logger": 4386,
      "DEV": 4387,
      "HMAC": 4388,
      "livenessprobe": 4389,
      "kaniko": 4390,
      "STRING": 4391,
      "DISABLE": 4392,
      "releases": 4393,
      "bud": 4394,
      "support": 4395,
      "compact": 4396,
      "Cloud": 4397,
      "iration": 4398,
      "3001": 4399,
      "AES": 4400,
      "Ġ./": 4401,
      "CD": 4402,
      "rix": 4403,
      "Tran": 4404,
      "ireguard": 4405,
      "Ġinstance": 4406,
      "externalTrafficPolicy": 4407,
      "Ġprovi": 4408,
      "BIN": 4409,
      "Ġ}": 4410,
      "IDR": 4411,
      "Cap": 4412,
      "text": 4413,
      "east": 4414,
      "cipher": 4415,
      "selenium": 4416,
      "varlibdocker": 4417,
      "CAC": 4418,
      "cla": 4419,
      "can": 4420,
      "overrides": 4421,
      "Addresses": 4422,
      "INTERVAL": 4423,
      "CONTROLLER": 4424,
      "vo": 4425,
      "compute": 4426,
      "LINK": 4427,
      "CreationTimestamp": 4428,
      "._": 4429,
      "tech": 4430,
      "sent": 4431,
      ".*)": 4432,
      "CORD": 4433,
      "Ġabout": 4434,
      "meet": 4435,
      "gatekeeper": 4436,
      "Connection": 4437,
      "ORDER": 4438,
      "SC": 4439,
      "354": 4440,
      "cryption": 4441,
      "Pool": 4442,
      "managers": 4443,
      "CALLBACK": 4444,
      "Sign": 4445,
      "sq": 4446,
      "Order": 4447,
      "=\"": 4448,
      "regc": 4449,
      "serve": 4450,
      "COLOR": 4451,
      "regcred": 4452,
      "ang": 4453,
      "seccompProfile": 4454,
      "6443": 4455,
      "OAUTH": 4456,
      "gcloud": 4457,
      "LimitRange": 4458,
      "failedJobsHistoryLimit": 4459,
      "und": 4460,
      "nas": 4461,
      "mutating": 4462,
      "/*": 4463,
      "vald": 4464,
      "Ġr": 4465,
      "ingressgateway": 4466,
      "iv": 4467,
      "deletion": 4468,
      "passwd": 4469,
      "SOCK": 4470,
      "flannel": 4471,
      "infer": 4472,
      "Servers": 4473,
      "definition": 4474,
      "Sink": 4475,
      "cod": 4476,
      "LOY": 4477,
      "suites": 4478,
      "transformer": 4479,
      "dn": 4480,
      "chy": 4481,
      "5672": 4482,
      "Provider": 4483,
      "validating": 4484,
      "ished": 4485,
      "102": 4486,
      "locust": 4487,
      "stud": 4488,
      "ership": 4489,
      "arning": 4490,
      "supplementalGroups": 4491,
      "DEPLOY": 4492,
      "apro": 4493,
      "opent": 4494,
      "Num": 4495,
      "dot": 4496,
      "np": 4497,
      "machin": 4498,
      "xdg": 4499,
      "TZ": 4500,
      "xxxx": 4501,
      "VIDER": 4502,
      "Allow": 4503,
      "RSA": 4504,
      "experi": 4505,
      "ratings": 4506,
      "nse": 4507,
      "111": 4508,
      "quotas": 4509,
      "spectrum": 4510,
      "133": 4511,
      "OP": 4512,
      "PROVIDER": 4513,
      "cronjob": 4514,
      "mg": 4515,
      "tb": 4516,
      "oidc": 4517,
      "Ġcontroller": 4518,
      "itors": 4519,
      "networks": 4520,
      "Ġsnapshot": 4521,
      "cas": 4522,
      "ition": 4523,
      "pos": 4524,
      "params": 4525,
      "fieldsType": 4526,
      "Max": 4527,
      "CREDENTIALS": 4528,
      "Ġallow": 4529,
      "zd": 4530,
      "directory": 4531,
      "SecretName": 4532,
      "LDAP": 4533,
      "Initial": 4534,
      "GITHUB": 4535,
      "mirror": 4536,
      "ovirt": 4537,
      "verageUtilization": 4538,
      "Cr": 4539,
      "Xmx": 4540,
      "[{\"": 4541,
      "toml": 4542,
      "Meta": 4543,
      "laa": 4544,
      "research": 4545,
      "115": 4546,
      "222": 4547,
      "spilo": 4548,
      "enmas": 4549,
      "GCM": 4550,
      "enmasse": 4551,
      "shard": 4552,
      "amb": 4553,
      "HostNet": 4554,
      "ECDHE": 4555,
      "falco": 4556,
      "budget": 4557,
      "IST": 4558,
      "Proxy": 4559,
      "ClusterFirstWith": 4560,
      "hostIPC": 4561,
      "ClusterFirstWithHostNet": 4562,
      "RESOURCE": 4563,
      "ĠIssuer": 4564,
      "sta": 4565,
      "Database": 4566,
      "Ġp": 4567,
      "REL": 4568,
      "Ġspecific": 4569,
      "VAULT": 4570,
      "pov": 4571,
      "deal": 4572,
      "Pods": 4573,
      "bigip": 4574,
      "Phase": 4575,
      "stry": 4576,
      "601": 4577,
      "filter": 4578,
      "ROLE": 4579,
      "cleanup": 4580,
      "storageos": 4581,
      "podsecurity": 4582,
      "letsencrypt": 4583,
      "gram": 4584,
      "marketplace": 4585,
      "Un": 4586,
      "ZONE": 4587,
      "tem": 4588,
      "INSTANCE": 4589,
      "Ġlog": 4590,
      "minec": 4591,
      "elemetry": 4592,
      "SM": 4593,
      "BOOT": 4594,
      "watcher": 4595,
      "Disk": 4596,
      "utils": 4597,
      "Bundle": 4598,
      "PP": 4599,
      "Wait": 4600,
      "Ġcon": 4601,
      "Ġobserv": 4602,
      "Overrides": 4603,
      "GGER": 4604,
      "wall": 4605,
      "erver": 4606,
      "7070": 4607,
      "References": 4608,
      "cloudflare": 4609,
      "varlibdockercontainers": 4610,
      "VATE": 4611,
      "cket": 4612,
      "tester": 4613,
      "trip": 4614,
      "OL": 4615,
      "cast": 4616,
      "Ġsent": 4617,
      "ength": 4618,
      "iscsi": 4619,
      "iance": 4620,
      "nn": 4621,
      "8090": 4622,
      "MANA": 4623,
      "2181": 4624,
      "SCHED": 4625,
      "USTO": 4626,
      "oth": 4627,
      "TEXT": 4628,
      "STATUS": 4629,
      "CACHE": 4630,
      "color": 4631,
      "---": 4632,
      "ura": 4633,
      "flagger": 4634,
      "fast": 4635,
      "DATE": 4636,
      "cronjobs": 4637,
      "jar": 4638,
      "rad": 4639,
      "datastore": 4640,
      "unre": 4641,
      "visor": 4642,
      "DOUT": 4643,
      "Effect": 4644,
      "ucs": 4645,
      "STDOUT": 4646,
      "IPS": 4647,
      "drivers": 4648,
      "fio": 4649,
      "DISCORD": 4650,
      "9093": 4651,
      "ANNEL": 4652,
      "ormal": 4653,
      "MESS": 4654,
      "oci": 4655,
      "validation": 4656,
      "EGER": 4657,
      "bound": 4658,
      "sinkUri": 4659,
      "defaultRequest": 4660,
      "ground": 4661,
      "NUM": 4662,
      "hostfs": 4663,
      "toolkit": 4664,
      "addons": 4665,
      "ĠD": 4666,
      "Ġport": 4667,
      "ervice": 4668,
      "trace": 4669,
      "Points": 4670,
      "ambassador": 4671,
      "horizontal": 4672,
      "ĠJ": 4673,
      "Ġcomponent": 4674,
      "dener": 4675,
      "ched": 4676,
      "sonar": 4677,
      "Manage": 4678,
      "gardener": 4679,
      "RELATED": 4680,
      "RY": 4681,
      "upload": 4682,
      "webui": 4683,
      "drupal": 4684,
      "sideEffect": 4685,
      "sideEffects": 4686,
      "356": 4687,
      "50000": 4688,
      "ingest": 4689,
      "disruption": 4690,
      "scheduled": 4691,
      "admissionReviewVersions": 4692,
      "bare": 4693,
      "jango": 4694,
      "cinder": 4695,
      "sizeBytes": 4696,
      "xml": 4697,
      "Ġkind": 4698,
      "issuers": 4699,
      "bW": 4700,
      "datado": 4701,
      "microservices": 4702,
      "zipkin": 4703,
      "datadoghq": 4704,
      "syndesis": 4705,
      "inline": 4706,
      "ingle": 4707,
      "playbook": 4708,
      "mixer": 4709,
      "Number": 4710,
      "exclude": 4711,
      "TRIGGER": 4712,
      "django": 4713,
      "Ġautom": 4714,
      "artifacts": 4715,
      "BIND": 4716,
      "Ġmay": 4717,
      "Timeout": 4718,
      "qualifiers": 4719,
      "pet": 4720,
      "Ġlabel": 4721,
      "docs": 4722,
      "Xms": 4723,
      "fail": 4724,
      "iffe": 4725,
      "artbeat": 4726,
      "DBCONFIG": 4727,
      "hop": 4728,
      "express": 4729,
      "achable": 4730,
      "preference": 4731,
      "action": 4732,
      "ansibl": 4733,
      "ownerReferences": 4734,
      "LOCK": 4735,
      ":<": 4736,
      "fw": 4737,
      "icated": 4738,
      "Critical": 4739,
      "ETH": 4740,
      "eure": 4741,
      "keygen": 4742,
      "scalyr": 4743,
      "ministry": 4744,
      "steps": 4745,
      "ĠG": 4746,
      "apper": 4747,
      "holder": 4748,
      "ubi": 4749,
      "Consumer": 4750,
      "most": 4751,
      "IRON": 4752,
      "XML": 4753,
      "dra": 4754,
      "zalan": 4755,
      "tags": 4756,
      "resol": 4757,
      "builds": 4758,
      "Duration": 4759,
      "VolumeEx": 4760,
      "Hello": 4761,
      "invent": 4762,
      "dbc": 4763,
      "switch": 4764,
      "jmeter": 4765,
      "emq": 4766,
      "sky": 4767,
      "Addons": 4768,
      "ofjustice": 4769,
      "MASTER": 4770,
      "kernel": 4771,
      "ministryofjustice": 4772,
      "AS": 4773,
      "orp": 4774,
      "acr": 4775,
      "FIC": 4776,
      "pilot": 4777,
      "Identity": 4778,
      "Im": 4779,
      "cam": 4780,
      "ask": 4781,
      "ROM": 4782,
      "5050": 4783,
      "quor": 4784,
      "}.": 4785,
      "Ġstorage": 4786,
      "aut": 4787,
      "license": 4788,
      "Ġencoded": 4789,
      "MGMT": 4790,
      "tower": 4791,
      "ENVIRON": 4792,
      "pansion": 4793,
      "opa": 4794,
      "types": 4795,
      "devices": 4796,
      "VolumeExpansion": 4797,
      "ENVIRONMENT": 4798,
      "oo": 4799,
      "your": 4800,
      "113": 4801,
      "LB": 4802,
      "pol": 4803,
      "NAT": 4804,
      "ROUTE": 4805,
      "make": 4806,
      "VM": 4807,
      "keda": 4808,
      "iali": 4809,
      "channels": 4810,
      "blackbox": 4811,
      "GENER": 4812,
      "unreachable": 4813,
      "bers": 4814,
      "hw": 4815,
      "deny": 4816,
      "shell": 4817,
      "RD": 4818,
      "yl": 4819,
      "renew": 4820,
      "headless": 4821,
      "receiver": 4822,
      "package": 4823,
      "BACKEN": 4824,
      "ome": 4825,
      "relay": 4826,
      "ILITY": 4827,
      "natrace": 4828,
      "Authent": 4829,
      "starcoin": 4830,
      "BR": 4831,
      "CS": 4832,
      "autoscalers": 4833,
      "lace": 4834,
      "CF": 4835,
      "oi": 4836,
      "verify": 4837,
      "Is": 4838,
      "sensor": 4839,
      "vpc": 4840,
      "Ġevents": 4841,
      "CONTEXT": 4842,
      "disabled": 4843,
      "Ġsigning": 4844,
      "ncf": 4845,
      "has": 4846,
      "header": 4847,
      "SPEC": 4848,
      "pur": 4849,
      "ansibletest": 4850,
      "353": 4851,
      "parca": 4852,
      "servicemon": 4853,
      "CLA": 4854,
      "Ġi": 4855,
      "catalogue": 4856,
      "Health": 4857,
      "Ġrecord": 4858,
      "inventory": 4859,
      ".${": 4860,
      "CUSTO": 4861,
      "pooler": 4862,
      "apic": 4863,
      "snapshotter": 4864,
      "dynatrace": 4865,
      "NCY": 4866,
      "ALLOW": 4867,
      "conversionReviewVersions": 4868,
      "minecraft": 4869,
      "ato": 4870,
      "aaa": 4871,
      "CUSTOM": 4872,
      "spyg": 4873,
      "aggregator": 4874,
      "PUBLIC": 4875,
      "spyglass": 4876,
      "kers": 4877,
      "lert": 4878,
      "creates": 4879,
      "HostTo": 4880,
      "HostToContainer": 4881,
      "Rem": 4882,
      "golang": 4883,
      "42010": 4884,
      "processing": 4885,
      "FROM": 4886,
      "ater": 4887,
      "Ali": 4888,
      "GRO": 4889,
      "its": 4890,
      "PRIVATE": 4891,
      "TT": 4892,
      "ĠIf": 4893,
      "allowVolumeExpansion": 4894,
      "}/": 4895,
      "Ġx": 4896,
      "spiffe": 4897,
      "tektoncd": 4898,
      "interface": 4899,
      "destination": 4900,
      "XN": 4901,
      "tic": 4902,
      "Debug": 4903,
      "applied": 4904,
      "PING": 4905,
      "gb": 4906,
      "}-": 4907,
      "repl": 4908,
      "10902": 4909,
      "BACKEND": 4910,
      "kiali": 4911,
      "SecurityPolicy": 4912,
      "sem": 4913,
      "296": 4914,
      "transport": 4915,
      "UPDATE": 4916,
      "Ġdescribes": 4917,
      "ĠCluster": 4918,
      "HOOK": 4919,
      "Ġhas": 4920,
      "ORDERER": 4921,
      "Signed": 4922,
      "Management": 4923,
      "PF": 4924,
      "insi": 4925,
      "lip": 4926,
      "hashic": 4927,
      "QUEUE": 4928,
      "CriticalAddons": 4929,
      "CriticalAddonsOnly": 4930,
      "click": 4931,
      "aliyun": 4932,
      "quorum": 4933,
      "day": 4934,
      "expose": 4935,
      "cur": 4936,
      "shippingservice": 4937,
      "CURRENCY": 4938,
      "3030": 4939,
      "TEST": 4940,
      "deis": 4941,
      "notations": 4942,
      "STRAP": 4943,
      "TAG": 4944,
      "Ġvalues": 4945,
      "podautoscalers": 4946,
      "tencent": 4947,
      "rd": 4948,
      "esh": 4949,
      "fire": 4950,
      "mai": 4951,
      "monitors": 4952,
      "ype": 4953,
      "Ġreconci": 4954,
      "rollouts": 4955,
      "LISTEN": 4956,
      "BOOTSTRAP": 4957,
      "MESSAGE": 4958,
      "-{{": 4959,
      "runs": 4960,
      "loadgenerator": 4961,
      "crun": 4962,
      "THE": 4963,
      "tle": 4964,
      "Ġfield": 4965,
      "Ġonly": 4966,
      "Services": 4967,
      "caBundle": 4968,
      "ABILITY": 4969,
      "checkout": 4970,
      "servicemonitors": 4971,
      "mgr": 4972,
      "chat": 4973,
      "IPT": 4974,
      "crunchy": 4975,
      "tan": 4976,
      "tokenreviews": 4977,
      "LIMIT": 4978,
      "Normal": 4979,
      "certmanager": 4980,
      "Ġreference": 4981,
      "SCR": 4982,
      "podcli": 4983,
      "dealership": 4984,
      "scanner": 4985,
      "Email": 4986,
      "acle": 4987,
      "move": 4988,
      "Egress": 4989,
      "car": 4990,
      "cainjector": 4991,
      "WebhookConfiguration": 4992,
      "NI": 4993,
      "dock": 4994,
      "urn": 4995,
      "bian": 4996,
      "ignore": 4997,
      "ELASTICSEARCH": 4998,
      "volumeName": 4999,
      "prison": 5000,
      "super": 5001,
      "fake": 5002,
      "125": 5003,
      "pubsub": 5004,
      "hydro": 5005,
      "Ġsubject": 5006,
      "8086": 5007,
      "catalogservice": 5008,
      "Object": 5009,
      "Ġyou": 5010,
      "kuber": 5011,
      "ĠCloud": 5012,
      "ient": 5013,
      "Ġu": 5014,
      "gister": 5015,
      "armor": 5016,
      "AK": 5017,
      "BE": 5018,
      "rot": 5019,
      "datasource": 5020,
      "terra": 5021,
      "SENT": 5022,
      "managedclusters": 5023,
      "telemeter": 5024,
      "istribution": 5025,
      "Ġ5": 5026,
      "hpe": 5027,
      "HOSTS": 5028,
      "Par": 5029,
      "examples": 5030,
      "eureka": 5031,
      "rop": 5032,
      "OBSERV": 5033,
      "Ver": 5034,
      "Alt": 5035,
      "jdbc": 5036,
      "ingressClassName": 5037,
      "Credential": 5038,
      "GROUP": 5039,
      "Ġadd": 5040,
      "Sync": 5041,
      "persist": 5042,
      "CART": 5043,
      "ARN": 5044,
      "CER": 5045,
      "productcatalogservice": 5046,
      "255": 5047,
      "Trace": 5048,
      "cartservice": 5049,
      "/$": 5050,
      "tin": 5051,
      "apiVersions": 5052,
      "workshop": 5053,
      "Li": 5054,
      "rerun": 5055,
      "module": 5056,
      "ReplicasPath": 5057,
      "SHIP": 5058,
      "Deletion": 5059,
      "meth": 5060,
      "pul": 5061,
      "Defin": 5062,
      "2022": 5063,
      "AltNames": 5064,
      "eter": 5065,
      "vpp": 5066,
      "aproxy": 5067,
      "cour": 5068,
      "repos": 5069,
      "Metadata": 5070,
      "ENE": 5071,
      "rootfs": 5072,
      "mss": 5073,
      "Ġprotocol": 5074,
      "mask": 5075,
      "pkg": 5076,
      "Aliases": 5077,
      "##": 5078,
      "lD": 5079,
      "203": 5080,
      "andbox": 5081,
      "large": 5082,
      "Backup": 5083,
      "grid": 5084,
      "poi": 5085,
      "rough": 5086,
      "placeholder": 5087,
      "expiration": 5088,
      "ĠsubjectAltNames": 5089,
      "BPG": 5090,
      "FER": 5091,
      "mid": 5092,
      "ĠApplication": 5093,
      "cess": 5094,
      "temp": 5095,
      "vswitch": 5096,
      ").": 5097,
      "kata": 5098,
      "mock": 5099,
      "ecs": 5100,
      "Manager": 5101,
      "3550": 5102,
      "rate": 5103,
      "Ġoper": 5104,
      "headers": 5105,
      "mnist": 5106,
      "Ġnetwork": 5107,
      "lusters": 5108,
      "failurePolicy": 5109,
      "OBSERVABILITY": 5110,
      "SSION": 5111,
      "Field": 5112,
      "9555": 5113,
      "rf": 5114,
      "trips": 5115,
      "cope": 5116,
      "vb": 5117,
      "esis": 5118,
      "Authentication": 5119,
      "debian": 5120,
      "handler": 5121,
      "9300": 5122,
      "Env": 5123,
      "smar": 5124,
      "nami": 5125,
      "subdir": 5126,
      "2379": 5127,
      "9091": 5128,
      "privateKeySecretRef": 5129,
      "bed": 5130,
      "hpa": 5131,
      "page": 5132,
      "stress": 5133,
      "elist": 5134,
      "alib": 5135,
      "LOAD": 5136,
      "888": 5137,
      "Ar": 5138,
      "full": 5139,
      "actions": 5140,
      "CHANNEL": 5141,
      "disruptionbudget": 5142,
      "ray": 5143,
      "MEN": 5144,
      "gx": 5145,
      "Ġhttp": 5146,
      "Requ": 5147,
      "251": 5148,
      "65535": 5149,
      "viz": 5150,
      "ulner": 5151,
      "intro": 5152,
      "haproxy": 5153,
      "resourcequotas": 5154,
      "mssql": 5155,
      "Rule": 5156,
      "oracle": 5157,
      "diag": 5158,
      "requirements": 5159,
      "aas": 5160,
      "fort": 5161,
      "ĠDNS": 5162,
      "adservice": 5163,
      "poddisruptionbudget": 5164,
      "60000": 5165,
      "contexts": 5166,
      "inc": 5167,
      "bitnami": 5168,
      "Backend": 5169,
      "Ġvolume": 5170,
      "ley": 5171,
      "Store": 5172,
      "TIVE": 5173,
      "65532": 5174,
      "ĠDefault": 5175,
      "Access": 5176,
      "UtilizationPercentage": 5177,
      "CPUUtilizationPercentage": 5178,
      "cheduler": 5179,
      "crlD": 5180,
      "dotnet": 5181,
      "istributionPoints": 5182,
      "crlDistributionPoints": 5183,
      "IPA": 5184,
      "Repository": 5185,
      "SCRIPT": 5186,
      "SL": 5187,
      "ĠCRD": 5188,
      "signer": 5189,
      "Transit": 5190,
      "dps": 5191,
      "backups": 5192,
      "hyperkube": 5193,
      "Ġindicate": 5194,
      "dynamic": 5195,
      "mayastor": 5196,
      "YWR": 5197,
      "URLs": 5198,
      "taW": 5199,
      "10901": 5200,
      "Ġident": 5201,
      "ĠID": 5202,
      "1800": 5203,
      "WAY": 5204,
      "oute": 5205,
      "hostAliases": 5206,
      "confluent": 5207,
      "GN": 5208,
      "Ġlatest": 5209,
      "ention": 5210,
      "ONG": 5211,
      "vious": 5212,
      "Fail": 5213,
      "recommendationservice": 5214,
      "clickhouse": 5215,
      "probes": 5216,
      "Ġreg": 5217,
      "hashicorp": 5218,
      "466": 5219,
      "Ġ8": 5220,
      "horizontalpodautoscalers": 5221,
      "-_": 5222,
      "targetCPUUtilizationPercentage": 5223,
      "BA": 5224,
      "SPL": 5225,
      "ting": 5226,
      "zc": 5227,
      "datadir": 5228,
      "MAIL": 5229,
      "SVC": 5230,
      "cortex": 5231,
      "RECOM": 5232,
      "models": 5233,
      "icloud": 5234,
      "ors": 5235,
      "annel": 5236,
      "Ġallows": 5237,
      "mu": 5238,
      "managedFields": 5239,
      "library": 5240,
      "ucsb": 5241,
      "poddisruptionbudgets": 5242,
      "My": 5243,
      "soc": 5244,
      "elf": 5245,
      "acid": 5246,
      "ardus": 5247,
      "zardus": 5248,
      "med": 5249,
      "seclab": 5250,
      "angr": 5251,
      "ivity": 5252,
      "inference": 5253,
      "ucsbseclab": 5254,
      "Ġaccess": 5255,
      "Ġstored": 5256,
      "signed": 5257,
      "Compl": 5258,
      "KEEP": 5259,
      "zero": 5260,
      "RECT": 5261,
      "druid": 5262,
      "WaitFor": 5263,
      "CLASS": 5264,
      "YWRtaW": 5265,
      "Rol": 5266,
      "containerd": 5267,
      "Organizations": 5268,
      "iner": 5269,
      "constraints": 5270,
      "Process": 5271,
      "writer": 5272,
      "TransitionTime": 5273,
      "AIR": 5274,
      "cru": 5275,
      "itelist": 5276,
      "DIRECT": 5277,
      "addresses": 5278,
      "lastTransitionTime": 5279,
      "WEBHOOK": 5280,
      "oih": 5281,
      "TING": 5282,
      "sip": 5283,
      "forwarder": 5284,
      "who": 5285,
      "oneOf": 5286,
      "igning": 5287,
      "epo": 5288,
      "rent": 5289,
      "rial": 5290,
      "maximum": 5291,
      "mssecrets": 5292,
      "compliance": 5293,
      "nextcloud": 5294,
      "RECOMMEN": 5295,
      "Pub": 5296,
      "jvm": 5297,
      "rv": 5298,
      "openvswitch": 5299,
      "SECUR": 5300,
      "FirstConsumer": 5301,
      "huge": 5302,
      "SHIPPING": 5303,
      "WaitForFirstConsumer": 5304,
      "Sta": 5305,
      "oup": 5306,
      "apicur": 5307,
      "jour": 5308,
      "uda": 5309,
      "2048": 5310,
      "subscri": 5311,
      "PodDisruptionBudget": 5312,
      "resourceField": 5313,
      "baremetal": 5314,
      "resourceFieldRef": 5315,
      "Ġpath": 5316,
      "Ġfields": 5317,
      "124": 5318,
      "SECURITY": 5319,
      "234": 5320,
      "send": 5321,
      "encryption": 5322,
      "QUEST": 5323,
      "dockers": 5324,
      "verno": 5325,
      "ipc": 5326,
      "certificatesigning": 5327,
      "kyverno": 5328,
      "amqp": 5329,
      "certificatesigningrequests": 5330,
      "dockerconfig": 5331,
      "pix": 5332,
      "34577": 5333,
      "eva": 5334,
      "ool": 5335,
      "alt": 5336,
      "push": 5337,
      "FLUENT": 5338,
      "cv": 5339,
      "expl": 5340,
      "azel": 5341,
      "ARGO": 5342,
      "bookin": 5343,
      "sdk": 5344,
      "splugin": 5345,
      "apparmor": 5346,
      "volumeAttributes": 5347,
      "opensource": 5348,
      "10001": 5349,
      "ifier": 5350,
      "currencyservice": 5351,
      "opentelemetry": 5352,
      "streams": 5353,
      "Usages": 5354,
      "assistant": 5355,
      "cic": 5356,
      "ans": 5357,
      "limitrange": 5358,
      "DATION": 5359,
      "Endpoints": 5360,
      "RECOMMENDATION": 5361,
      "Mon": 5362,
      "sandbox": 5363,
      "yarn": 5364,
      "localtime": 5365,
      "ENDPOINTS": 5366,
      "migrate": 5367,
      "CHECKOUT": 5368,
      "estr": 5369,
      "ENG": 5370,
      "ABRIC": 5371,
      "unda": 5372,
      "pit": 5373,
      "injection": 5374,
      "util": 5375,
      "camunda": 5376,
      "meda": 5377,
      "{{.": 5378,
      "copy": 5379,
      "5001": 5380,
      "dockerconfigjson": 5381,
      "folder": 5382,
      "ĠResource": 5383,
      "contri": 5384,
      "PodSecurityPolicy": 5385,
      "storageclasses": 5386,
      "manifests": 5387,
      "def": 5388,
      "atiwar": 5389,
      "elery": 5390,
      "datanode": 5391,
      "podsecuritypolicies": 5392,
      "761": 5393,
      "FLA": 5394,
      "ZX": 5395,
      "REQUEST": 5396,
      "linker": 5397,
      "generated": 5398,
      "startupProbe": 5399,
      "RED": 5400,
      "ĠPrometheus": 5401,
      "]+": 5402,
      "dl": 5403,
      "ishub": 5404,
      "contrail": 5405,
      "9080": 5406,
      "ANNA": 5407,
      "docu": 5408,
      "atiwarishub": 5409,
      "loop": 5410,
      "until": 5411,
      "response": 5412,
      "epoch": 5413,
      "Fin": 5414,
      "Ġvalue": 5415,
      "ied": 5416,
      "blockOwner": 5417,
      "blockOwnerDeletion": 5418,
      "objects": 5419,
      "SSAND": 5420,
      "ĠCertific": 5421,
      "subscriptions": 5422,
      "SSANDRA": 5423,
      "Ste": 5424,
      "acy": 5425,
      "property": 5426,
      "nonResource": 5427,
      "assisted": 5428,
      "packa": 5429,
      "checkoutservice": 5430,
      "Ġendpoint": 5431,
      "160": 5432,
      "squad": 5433,
      "mountOptions": 5434,
      "Ġaddresses": 5435,
      "sn": 5436,
      "zk": 5437,
      "final": 5438,
      "clients": 5439,
      "352": 5440,
      "Hash": 5441,
      "cis": 5442,
      "nterprise": 5443,
      "graf": 5444,
      "collection": 5445,
      "messages": 5446,
      "brokers": 5447,
      "teleport": 5448,
      "KONG": 5449,
      "hostnames": 5450,
      "ĠCer": 5451,
      "minikube": 5452,
      "MEMORY": 5453,
      "alameda": 5454,
      "hc": 5455,
      "restr": 5456,
      "postStart": 5457,
      "automation": 5458,
      "lacement": 5459,
      "oupdate": 5460,
      "tur": 5461,
      "estore": 5462,
      "TEAM": 5463,
      "IA": 5464,
      "celery": 5465,
      "nf": 5466,
      "Ġnamespace": 5467,
      "ino": 5468,
      "Maker": 5469,
      "autoupdate": 5470,
      "104": 5471,
      "106": 5472,
      "IBM": 5473,
      "ARGOCD": 5474,
      "FR": 5475,
      "PVC": 5476,
      "icate": 5477,
      "terraform": 5478,
      "Bag": 5479,
      "UNK": 5480,
      "FLUX": 5481,
      "online": 5482,
      "primary": 5483,
      "Ġfailed": 5484,
      "thing": 5485,
      "clusterroles": 5486,
      "Ġinter": 5487,
      "checks": 5488,
      "FABRIC": 5489,
      "evict": 5490,
      "hole": 5491,
      "Ġformat": 5492,
      "volumesnapshot": 5493,
      "Annotations": 5494,
      "pas": 5495,
      "managedcluster": 5496,
      "preprod": 5497,
      "gala": 5498,
      "Min": 5499,
      "logLevel": 5500,
      "NFS": 5501,
      "scyl": 5502,
      "CASSANDRA": 5503,
      "Links": 5504,
      "COMMIT": 5505,
      ":\\\\": 5506,
      "Ġspecified": 5507,
      "||": 5508,
      "naker": 5509,
      "LECTION": 5510,
      "dm": 5511,
      "sysctl": 5512,
      "Length": 5513,
      "za": 5514,
      "clusterrolebindings": 5515,
      "ORI": 5516,
      "safe": 5517,
      "loadBalancerIP": 5518,
      "bal": 5519,
      "cstor": 5520,
      "hs": 5521,
      "where": 5522,
      "vcs": 5523,
      "akash": 5524,
      "SMTP": 5525,
      "scr": 5526,
      "ather": 5527,
      "sever": 5528,
      "everity": 5529,
      "pam": 5530,
      "LIV": 5531,
      "effic": 5532,
      "ivery": 5533,
      "wild": 5534,
      "indust": 5535,
      "nonResourceURLs": 5536,
      ":${": 5537,
      "hosted": 5538,
      "NotIn": 5539,
      "PEM": 5540,
      "downward": 5541,
      "Ġoptions": 5542,
      "kubevious": 5543,
      "linkerd": 5544,
      "industrial": 5545,
      "RuntimeDefault": 5546,
      "Ġany": 5547,
      "endor": 5548,
      "EXP": 5549,
      "persistence": 5550,
      "390": 5551,
      "Must": 5552,
      "movi": 5553,
      "scraper": 5554,
      "maistra": 5555,
      "Succeeded": 5556,
      "Finished": 5557,
      "starting": 5558,
      "ENGINE": 5559,
      "Ġal": 5560,
      "ULL": 5561,
      "672": 5562,
      "BUIL": 5563,
      "DATASOURCE": 5564,
      "SPLUNK": 5565,
      "cita": 5566,
      "Vault": 5567,
      "validate": 5568,
      "9001": 5569,
      "Cert": 5570,
      "kms": 5571,
      "utdown": 5572,
      "lvm": 5573,
      "FIL": 5574,
      "cow": 5575,
      "readyReplicas": 5576,
      "analysis": 5577,
      "chaincode": 5578,
      "Observed": 5579,
      "):": 5580,
      "tai": 5581,
      "plex": 5582,
      "ServiceLinks": 5583,
      "ostgres": 5584,
      "BRID": 5585,
      "gates": 5586,
      "ĠZ": 5587,
      "Ġad": 5588,
      "clust": 5589,
      "___": 5590,
      "spinnaker": 5591,
      "ddns": 5592,
      "GRPC": 5593,
      "variables": 5594,
      "AfterFinished": 5595,
      "Ġautomat": 5596,
      "IG": 5597,
      "Mod": 5598,
      "sole": 5599,
      "SecondsAfterFinished": 5600,
      "INFLUX": 5601,
      "Appl": 5602,
      "rev": 5603,
      "gera": 5604,
      "8083": 5605,
      "ttlSecondsAfterFinished": 5606,
      "vx": 5607,
      "zh": 5608,
      "alone": 5609,
      "river": 5610,
      "dbus": 5611,
      "384": 5612,
      "persistentvolumesusage": 5613,
      "CIDR": 5614,
      "kr": 5615,
      "Ġ${": 5616,
      "descheduler": 5617,
      "couchbase": 5618,
      "700": 5619,
      "cw": 5620,
      "pages": 5621,
      "pair": 5622,
      "realm": 5623,
      "mutatingwebhookconfigurations": 5624,
      "Ġper": 5625,
      "che": 5626,
      "loge": 5627,
      "formbuilder": 5628,
      "bookinfo": 5629,
      "PON": 5630,
      "bank": 5631,
      "ecsdemo": 5632,
      "Location": 5633,
      "irrorMaker": 5634,
      "jor": 5635,
      "nodeid": 5636,
      "stdout": 5637,
      "\"}]": 5638,
      "MANAGER": 5639,
      "purpose": 5640,
      "Db": 5641,
      "Ġrelated": 5642,
      "SAN": 5643,
      "dp": 5644,
      "sentry": 5645,
      "indexer": 5646,
      "aaaatiwarishub": 5647,
      "iew": 5648,
      "emo": 5649,
      "ĠCh": 5650,
      ":{{": 5651,
      "Severity": 5652,
      "urls": 5653,
      "THREAD": 5654,
      "deployer": 5655,
      "solr": 5656,
      "carts": 5657,
      "insights": 5658,
      "scylla": 5659,
      "/(": 5660,
      "Be": 5661,
      "elco": 5662,
      "jobmanager": 5663,
      "metricbeat": 5664,
      "XXXX": 5665,
      "inel": 5666,
      "spar": 5667,
      "used": 5668,
      "commit": 5669,
      "disc": 5670,
      "Ġdeployed": 5671,
      "Route": 5672,
      "sso": 5673,
      "ACTIVE": 5674,
      "enableServiceLinks": 5675,
      "etwe": 5676,
      "second": 5677,
      "Azure": 5678,
      "balan": 5679,
      "Ġ127": 5680,
      "fir": 5681,
      "AUTO": 5682,
      "Step": 5683,
      "Ġinstall": 5684,
      "keystore": 5685,
      "preem": 5686,
      "alive": 5687,
      "SENTRY": 5688,
      "BRIDGE": 5689,
      "exe": 5690,
      "ators": 5691,
      "Info": 5692,
      "signing": 5693,
      "-.": 5694,
      "sions": 5695,
      "started": 5696,
      ")(": 5697,
      "cel": 5698,
      "scheduling": 5699,
      "vpn": 5700,
      "Ġ>>": 5701,
      "aliyuncs": 5702,
      "epochs": 5703,
      "Mount": 5704,
      "ible": 5705,
      "Ġ6": 5706,
      "Ġ;": 5707,
      "stop": 5708,
      "MustRunAs": 5709,
      "replic": 5710,
      "USERID": 5711,
      "When": 5712,
      "sloth": 5713,
      "mgmt": 5714,
      "semver": 5715,
      "Ġnodes": 5716,
      "prof": 5717,
      "pred": 5718,
      "blobfuse": 5719,
      "ENESS": 5720,
      "LIVENESS": 5721,
      "CONF": 5722,
      "FC": 5723,
      "Ġexternal": 5724,
      "challenge": 5725,
      "updated": 5726,
      "Persistent": 5727,
      "now": 5728,
      "authservice": 5729,
      "maps": 5730,
      "metering": 5731,
      "JAEGER": 5732,
      "9808": 5733,
      "nlp": 5734,
      "tc": 5735,
      "vs": 5736,
      "fsx": 5737,
      "userid": 5738,
      "fieldsV": 5739,
      "logevent": 5740,
      "smtp": 5741,
      "other": 5742,
      "Ġ30": 5743,
      ":~": 5744,
      "Base": 5745,
      "pers": 5746,
      "Username": 5747,
      "Fe": 5748,
      "Sh": 5749,
      "nort": 5750,
      "ios": 5751,
      "seed": 5752,
      "simul": 5753,
      "302": 5754,
      "TPU": 5755,
      "XMPP": 5756,
      "GATE": 5757,
      "cad": 5758,
      "CFG": 5759,
      "ientnet": 5760,
      "efficientnet": 5761,
      "cz": 5762,
      "cfs": 5763,
      "nect": 5764,
      "typha": 5765,
      "rcnn": 5766,
      "manila": 5767,
      "sentinel": 5768,
      "validatingwebhookconfigurations": 5769,
      "clusterrole": 5770,
      "securitycontext": 5771,
      "processor": 5772,
      "DEVICE": 5773,
      "hasura": 5774,
      "kp": 5775,
      "ish": 5776,
      "heartbeat": 5777,
      "calc": 5778,
      "ovs": 5779,
      "kafkas": 5780,
      "OO": 5781,
      "Placement": 5782,
      "tde": 5783,
      "ĠPEM": 5784,
      "kubed": 5785,
      "demos": 5786,
      "Kubernetes": 5787,
      "WI": 5788,
      "Ġma": 5789,
      "bee": 5790,
      "MONGOUSER": 5791,
      "atlas": 5792,
      "eventTypes": 5793,
      "flags": 5794,
      "MONGOHOST": 5795,
      "notifications": 5796,
      "8200": 5797,
      "ias": 5798,
      "reverse": 5799,
      "shutdown": 5800,
      "gover": 5801,
      "ability": 5802,
      "Workloads": 5803,
      "securitycontextconstraints": 5804,
      "/_": 5805,
      "Ġl": 5806,
      "rigger": 5807,
      "azelcast": 5808,
      ":^": 5809,
      "This": 5810,
      "annotation": 5811,
      "pihole": 5812,
      "PREF": 5813,
      "restrict": 5814,
      "qube": 5815,
      "mongoHost": 5816,
      "haks": 5817,
      "Ġauth": 5818,
      "poser": 5819,
      "nodeport": 5820,
      "partic": 5821,
      "dnsName": 5822,
      "NEW": 5823,
      "ALLB": 5824,
      "anization": 5825,
      "Verify": 5826,
      "Ġautomatical": 5827,
      "case": 5828,
      "gee": 5829,
      "mariner": 5830,
      "MONGOPASSWORD": 5831,
      "Admin": 5832,
      "Ġprovides": 5833,
      "packages": 5834,
      "Mesh": 5835,
      "Snapshot": 5836,
      "SEC": 5837,
      "trait": 5838,
      "METALLB": 5839,
      "tdeda": 5840,
      "Ġsingle": 5841,
      "mongoUser": 5842,
      "Ġmore": 5843,
      "feder": 5844,
      "hazelcast": 5845,
      "geta": 5846,
      "ocs": 5847,
      "ceAttributes": 5848,
      "creation": 5849,
      "All": 5850,
      "WORKER": 5851,
      "ĠKube": 5852,
      "dedicated": 5853,
      "PROFILES": 5854,
      "alico": 5855,
      "hang": 5856,
      "KubeVirt": 5857,
      "konnect": 5858,
      "PREFECT": 5859,
      "854": 5860,
      "dream": 5861,
      "fed": 5862,
      "Ġgi": 5863,
      "mongoPassword": 5864,
      "9095": 5865,
      "distributor": 5866,
      "TEAMNAME": 5867,
      "first": 5868,
      "GCP": 5869,
      "span": 5870,
      "Reporting": 5871,
      "ConnectionStr": 5872,
      "Tag": 5873,
      "ppc": 5874,
      "whoami": 5875,
      "Core": 5876,
      "Vali": 5877,
      "intenance": 5878,
      "SETTING": 5879,
      "CNI": 5880,
      "ELECTION": 5881,
      "gitea": 5882,
      "visions": 5883,
      "Ġobservations": 5884,
      "sonarqube": 5885,
      "ĠCerti": 5886,
      "finder": 5887,
      "worx": 5888,
      "psql": 5889,
      "CHAIN": 5890,
      "sysfs": 5891,
      "PGPASSWORD": 5892,
      "tdedahaks": 5893,
      "LAN": 5894,
      "ROR": 5895,
      "pip": 5896,
      "was": 5897,
      "body": 5898,
      "addressable": 5899,
      "ified": 5900,
      "3919": 5901,
      "COMMA": 5902,
      "Ġrules": 5903,
      "ruler": 5904,
      "mediate": 5905,
      "havi": 5906,
      "imal": 5907,
      "gateways": 5908,
      "9411": 5909,
      "containerName": 5910,
      "Master": 5911,
      "ObservedGeneration": 5912,
      "Ġlayer": 5913,
      "lus": 5914,
      "peers": 5915,
      "azch": 5916,
      "tunnel": 5917,
      "PCS": 5918,
      "sts": 5919,
      "playground": 5920,
      "ZOO": 5921,
      "dist": 5922,
      "matter": 5923,
      "cnf": 5924,
      "standalone": 5925,
      "310": 5926,
      "ected": 5927,
      "learning": 5928,
      ">/": 5929,
      "RAW": 5930,
      "erview": 5931,
      "emis": 5932,
      "olut": 5933,
      "retention": 5934,
      "geth": 5935,
      "REP": 5936,
      "clusterName": 5937,
      "RAM": 5938,
      "approver": 5939,
      "pu": 5940,
      "omic": 5941,
      "initializ": 5942,
      "cabundle": 5943,
      "journal": 5944,
      "etween": 5945,
      "erge": 5946,
      "atic": 5947,
      "initdb": 5948,
      "105": 5949,
      "weaveworks": 5950,
      "188": 5951,
      "5601": 5952,
      "Nodes": 5953,
      "System": 5954,
      "POOL": 5955,
      "blockchain": 5956,
      "SOCKET": 5957,
      "Disable": 5958,
      "msi": 5959,
      "ĠOrder": 5960,
      "portworx": 5961,
      "LEADER": 5962,
      "alertmanagers": 5963,
      "wavefront": 5964,
      "peerOrganizations": 5965,
      "ency": 5966,
      "ipam": 5967,
      "podTemplate": 5968,
      "20211": 5969,
      "dating": 5970,
      "ano": 5971,
      "ATFORM": 5972,
      "PLATFORM": 5973,
      "Logging": 5974,
      "vizier": 5975,
      "averageUtilization": 5976,
      "podManagement": 5977,
      "999": 5978,
      "147": 5979,
      "SERVERS": 5980,
      "RANS": 5981,
      "konnectivity": 5982,
      "podManagementPolicy": 5983,
      "bm": 5984,
      "fol": 5985,
      "ket": 5986,
      "Ġoptional": 5987,
      "itto": 5988,
      "ignored": 5989,
      "nfd": 5990,
      "orch": 5991,
      "lua": 5992,
      "qui": 5993,
      "CEPH": 5994,
      "IMAGES": 5995,
      "shopping": 5996,
      "promtail": 5997,
      "8008": 5998,
      "Hand": 5999,
      "Ġworkload": 6000,
      "Ġlevel": 6001,
      "lout": 6002,
      "vcm": 6003,
      "hdfs": 6004,
      "assign": 6005,
      "havior": 6006,
      "301": 6007,
      "Ġcurl": 6008,
      "bases": 6009,
      "ding": 6010,
      "Ġcommun": 6011,
      "ise": 6012,
      "targetA": 6013,
      "succeeded": 6014,
      "cdc": 6015,
      "whitelist": 6016,
      "Remote": 6017,
      "tiny": 6018,
      "contrib": 6019,
      "eam": 6020,
      "pdb": 6021,
      "Ġme": 6022,
      "Ġhost": 6023,
      "resync": 6024,
      "light": 6025,
      "STATE": 6026,
      "installed": 6027,
      "tact": 6028,
      "ulator": 6029,
      "clusterip": 6030,
      "INSI": 6031,
      "MTU": 6032,
      "CRY": 6033,
      "ctrl": 6034,
      "Lighthouse": 6035,
      "GP": 6036,
      "gold": 6037,
      "Ġready": 6038,
      "special": 6039,
      "sim": 6040,
      "ONT": 6041,
      "bucketrepo": 6042,
      "...": 6043,
      "evalu": 6044,
      "quick": 6045,
      "Refresh": 6046,
      "mosqu": 6047,
      "Period": 6048,
      "Ġcount": 6049,
      "scratch": 6050,
      "COMMAND": 6051,
      "Ġst": 6052,
      "spa": 6053,
      "HEAL": 6054,
      "apicurio": 6055,
      "tick": 6056,
      "atures": 6057,
      "echoserver": 6058,
      "WNER": 6059,
      "pin": 6060,
      "poll": 6061,
      "chec": 6062,
      "POLIC": 6063,
      "30000": 6064,
      "Ġnamed": 6065,
      "approved": 6066,
      "pixie": 6067,
      "OV": 6068,
      "OZONE": 6069,
      "vendor": 6070,
      "olog": 6071,
      "ays": 6072,
      "verti": 6073,
      "cloudwatch": 6074,
      "loadgen": 6075,
      "ĠCom": 6076,
      "finals": 6077,
      "SYNC": 6078,
      "Capabilities": 6079,
      "av": 6080,
      "member": 6081,
      "DEX": 6082,
      "tracker": 6083,
      "aggregation": 6084,
      "hack": 6085,
      "psp": 6086,
      "nables": 6087,
      "pend": 6088,
      "INGRESS": 6089,
      "6789": 6090,
      "severity": 6091,
      "GATEWAY": 6092,
      "mapping": 6093,
      "reports": 6094,
      "prox": 6095,
      "backrest": 6096,
      "cowweb": 6097,
      "ĠKubeVirt": 6098,
      "::": 6099,
      "Ġoutput": 6100,
      "eting": 6101,
      "chron": 6102,
      "114": 6103,
      "SANs": 6104,
      "discord": 6105,
      "ured": 6106,
      "vector": 6107,
      "laun": 6108,
      "prometheuses": 6109,
      "lastic": 6110,
      "GFzc": 6111,
      "ORIGIN": 6112,
      "BUILD": 6113,
      "mosquitto": 6114,
      "Wind": 6115,
      "Ġcom": 6116,
      "htpasswd": 6117,
      "six": 6118,
      "company": 6119,
      "kast": 6120,
      "managementState": 6121,
      "propertyBag": 6122,
      "vide": 6123,
      "254": 6124,
      "admins": 6125,
      "mpi": 6126,
      "Lat": 6127,
      "power": 6128,
      "REF": 6129,
      "204": 6130,
      "supported": 6131,
      "Required": 6132,
      "8500": 6133,
      "bgp": 6134,
      "esjavascriptdocker": 6135,
      "Prometheus": 6136,
      "blem": 6137,
      "RefreshInterval": 6138,
      "HEALTH": 6139,
      "POLICY": 6140,
      "Ġoverrides": 6141,
      "PROVISION": 6142,
      "actor": 6143,
      "hotel": 6144,
      "wiki": 6145,
      "dreamkast": 6146,
      "qa": 6147,
      "sre": 6148,
      "vfio": 6149,
      "Ġmetrics": 6150,
      "Ġrequested": 6151,
      "SON": 6152,
      "mission": 6153,
      "mada": 6154,
      "exit": 6155,
      "beam": 6156,
      "trics": 6157,
      "downwardAPI": 6158,
      "otlp": 6159,
      "Ġdetails": 6160,
      "stackdriver": 6161,
      "listeners": 6162,
      "ĠĠĠĠĠĠĠĠ": 6163,
      "mall": 6164,
      "Before": 6165,
      "VB": 6166,
      "[*": 6167,
      "flo": 6168,
      "ito": 6169,
      "Last": 6170,
      "telegraf": 6171,
      "MPPS": 6172,
      "restricted": 6173,
      "hr": 6174,
      "Ġregistry": 6175,
      "refer": 6176,
      "look": 6177,
      "reserved": 6178,
      "ĠMerge": 6179,
      "routing": 6180,
      "masq": 6181,
      "DN": 6182,
      "HMPPS": 6183,
      "ntal": 6184,
      "ĠI": 6185,
      "til": 6186,
      "ametrics": 6187,
      "SCRIPTION": 6188,
      ")?": 6189,
      "Ġselect": 6190,
      "ifies": 6191,
      "bootstrapping": 6192,
      "Ġrecei": 6193,
      "GRAP": 6194,
      "Trigger": 6195,
      "stak": 6196,
      "lara": 6197,
      "plus": 6198,
      "GHTS": 6199,
      "MSPID": 6200,
      "ISTIO": 6201,
      "Use": 6202,
      "uj": 6203,
      "ĠName": 6204,
      "merc": 6205,
      "porter": 6206,
      "START": 6207,
      "subresource": 6208,
      "KEYCLO": 6209,
      "print": 6210,
      "stakater": 6211,
      "KEYCLOAK": 6212,
      "GS": 6213,
      "springboot": 6214,
      "bootstrapServers": 6215,
      "downloads": 6216,
      "method": 6217,
      "Complet": 6218,
      "PersistentDisk": 6219,
      "PRESS": 6220,
      "yn": 6221,
      "itories": 6222,
      "recated": 6223,
      "cube": 6224,
      "ik": 6225,
      "eco": 6226,
      "ecar": 6227,
      "noti": 6228,
      "FRONT": 6229,
      "startingDeadlineSeconds": 6230,
      "JI": 6231,
      "Ġenabled": 6232,
      "elk": 6233,
      "react": 6234,
      "profil": 6235,
      "elink": 6236,
      "refresh": 6237,
      "20190": 6238,
      "rotation": 6239,
      "SLACK": 6240,
      "pitrix": 6241,
      "aaaatiwarishubaks": 6242,
      "elcome": 6243,
      "IM": 6244,
      "muse": 6245,
      "rt": 6246,
      "tato": 6247,
      "SIGN": 6248,
      "oriametrics": 6249,
      "victoriametrics": 6250,
      "museum": 6251,
      "Ð¾": 6252,
      "COMPON": 6253,
      "ETC": 6254,
      "rocket": 6255,
      "Console": 6256,
      "aba": 6257,
      "nifi": 6258,
      "ctlr": 6259,
      "smart": 6260,
      ")$": 6261,
      "240": 6262,
      "wp": 6263,
      "108": 6264,
      "tokens": 6265,
      "generations": 6266,
      "tripviewer": 6267,
      "etermin": 6268,
      "ĠDefaults": 6269,
      "lc": 6270,
      "Ġgroup": 6271,
      "Ġover": 6272,
      "Migr": 6273,
      "record": 6274,
      "Ġusages": 6275,
      "refl": 6276,
      "cicd": 6277,
      "ĠCertificat": 6278,
      "GRAPH": 6279,
      "Api": 6280,
      "Wireguard": 6281,
      "ghost": 6282,
      "news": 6283,
      "atio": 6284,
      "REVISION": 6285,
      "organization": 6286,
      "EXTER": 6287,
      "Authorization": 6288,
      "rhpam": 6289,
      "tempo": 6290,
      "AUD": 6291,
      "voc": 6292,
      "convert": 6293,
      "chartmuseum": 6294,
      "TIFIC": 6295,
      "EXEC": 6296,
      "experiments": 6297,
      "sli": 6298,
      "sgx": 6299,
      "Redis": 6300,
      "submariner": 6301,
      "Channel": 6302,
      "websocket": 6303,
      "INSIGHTS": 6304,
      "spe": 6305,
      "artifactory": 6306,
      "ClientIP": 6307,
      "COMPONENT": 6308,
      "Mut": 6309,
      "Ran": 6310,
      "vin": 6311,
      "maker": 6312,
      "problem": 6313,
      "clustermesh": 6314,
      "2018": 6315,
      "292": 6316,
      "alerts": 6317,
      "coding": 6318,
      "TIFICATE": 6319,
      "Batch": 6320,
      "kluster": 6321,
      "ica": 6322,
      "IPs": 6323,
      "199": 6324,
      "hydra": 6325,
      "detector": 6326,
      "EXTERNAL": 6327,
      "yu": 6328,
      "ĠX": 6329,
      "olon": 6330,
      "1000000": 6331,
      "Ġtopic": 6332,
      "fication": 6333,
      "202112": 6334,
      "zulip": 6335,
      "preempt": 6336,
      "dvcm": 6337,
      "sbin": 6338,
      "Ġneeds": 6339,
      "stock": 6340,
      "dump": 6341,
      "]{": 6342,
      "sb": 6343,
      "atalog": 6344,
      "databases": 6345,
      "fluxd": 6346,
      "DEPLOYMENT": 6347,
      "kie": 6348,
      "Ġqualifi": 6349,
      "ĠPods": 6350,
      "uninstall": 6351,
      "444": 6352,
      "1500": 6353,
      "Contains": 6354,
      "distributed": 6355,
      "LH": 6356,
      "threshold": 6357,
      "tod": 6358,
      "2112": 6359,
      "Prefer": 6360,
      "Ġrecent": 6361,
      "rw": 6362,
      "nameValue": 6363,
      "stre": 6364,
      "Ġresou": 6365,
      "social": 6366,
      "particip": 6367,
      "kb": 6368,
      "pow": 6369,
      "many": 6370,
      "220": 6371,
      "bad": 6372,
      "ose": 6373,
      "minAvailable": 6374,
      "detection": 6375,
      "estrator": 6376,
      "profiling": 6377,
      "zap": 6378,
      "pts": 6379,
      "edb": 6380,
      "transl": 6381,
      "wireguard": 6382,
      "Ġselector": 6383,
      "mlpipeline": 6384,
      "TLSVerify": 6385,
      "LR": 6386,
      "zer": 6387,
      "|[": 6388,
      "Ġ]": 6389,
      "rca": 6390,
      "csv": 6391,
      "activities": 6392,
      "Ġenables": 6393,
      "attachments": 6394,
      "galley": 6395,
      "Items": 6396,
      "preemptible": 6397,
      "mk": 6398,
      "onic": 6399,
      "nauti": 6400,
      "dee": 6401,
      "SECON": 6402,
      "dnsConfig": 6403,
      "archive": 6404,
      "tsdb": 6405,
      "Go": 6406,
      "Mj": 6407,
      "Ġpull": 6408,
      "allocation": 6409,
      "APPINSIGHTS": 6410,
      "777": 6411,
      "LogLevel": 6412,
      "classification": 6413,
      "Ġgiven": 6414,
      "osd": 6415,
      "userprofile": 6416,
      "POSTGRESQL": 6417,
      "FailureTime": 6418,
      "INTERNAL": 6419,
      "OPEN": 6420,
      "Ġregist": 6421,
      "dvcmQ": 6422,
      "LDER": 6423,
      "bob": 6424,
      "pla": 6425,
      "stan": 6426,
      "collect": 6427,
      "sharedvolume": 6428,
      "SESSION": 6429,
      "Private": 6430,
      "resolver": 6431,
      "hugepages": 6432,
      "dele": 6433,
      "107": 6434,
      "taskcluster": 6435,
      "join": 6436,
      "ĠChallenge": 6437,
      "ĠHTTP": 6438,
      "mag": 6439,
      "retina": 6440,
      "mountpoint": 6441,
      "SIDE": 6442,
      "participant": 6443,
      "Ip": 6444,
      "VO": 6445,
      "cro": 6446,
      "openpitrix": 6447,
      "cms": 6448,
      "party": 6449,
      "Topology": 6450,
      "gistered": 6451,
      "subscriber": 6452,
      "Vy": 6453,
      "revisions": 6454,
      "depen": 6455,
      "rafana": 6456,
      "une": 6457,
      "ĊĠĠĠĠĠĠ": 6458,
      "activator": 6459,
      "Immediate": 6460,
      "vertise": 6461,
      "939": 6462,
      "121": 6463,
      "FieldsV": 6464,
      "governance": 6465,
      "AKA": 6466,
      "BERT": 6467,
      "dig": 6468,
      "overview": 6469,
      "retinanet": 6470,
      "AKASH": 6471,
      "iq": 6472,
      "([": 6473,
      "Scope": 6474,
      "pw": 6475,
      "sod": 6476,
      "Ġroute": 6477,
      "ginal": 6478,
      "Devices": 6479,
      "SECURE": 6480,
      "CLE": 6481,
      "ILS": 6482,
      "ced": 6483,
      "kasten": 6484,
      "ĠĠĠ": 6485,
      "anti": 6486,
      "teams": 6487,
      "ZOOKEEPER": 6488,
      "ologic": 6489,
      "UGIN": 6490,
      "points": 6491,
      "general": 6492,
      "cacert": 6493,
      "factor": 6494,
      "EXECUT": 6495,
      "Ġ3600": 6496,
      "ony": 6497,
      "CONS": 6498,
      "2960": 6499,
      "reporting": 6500,
      "straint": 6501,
      "Whether": 6502,
      "mob": 6503,
      "Ġhealth": 6504,
      "leg": 6505,
      "siri": 6506,
      "crape": 6507,
      "verageValue": 6508,
      "Validating": 6509,
      "fy": 6510,
      "machines": 6511,
      "ropsten": 6512,
      "Latest": 6513,
      "laravel": 6514,
      "itter": 6515,
      "Provision": 6516,
      "cnrm": 6517,
      "ĠMirrorMaker": 6518,
      "mil": 6519,
      "Ġfile": 6520,
      "Ġexec": 6521,
      "Ġinstances": 6522,
      "strate": 6523,
      "Prot": 6524,
      "IAM": 6525,
      "notic": 6526,
      "podtato": 6527,
      "expand": 6528,
      "Rollout": 6529,
      "kprca": 6530,
      "TRANS": 6531,
      "far": 6532,
      "ĠCondition": 6533,
      "apigee": 6534,
      "subject": 6535,
      "genesis": 6536,
      "36000": 6537,
      "VIRT": 6538,
      "AIRFLOW": 6539,
      "reference": 6540,
      "Ġregisters": 6541,
      "noticias": 6542,
      "WD": 6543,
      "YW": 6544,
      "sv": 6545,
      "Ġnames": 6546,
      "Ġrequirements": 6547,
      "thri": 6548,
      "NETC": 6549,
      "nrfin": 6550,
      "Parallel": 6551,
      "mattermost": 6552,
      "ujes": 6553,
      "132": 6554,
      "320": 6555,
      "IOT": 6556,
      "hf": 6557,
      "acm": 6558,
      "gestream": 6559,
      "NOT": 6560,
      "ople": 6561,
      "poc": 6562,
      "xla": 6563,
      "PROME": 6564,
      "\":{\"": 6565,
      "FAST": 6566,
      "pgdata": 6567,
      "IE": 6568,
      "ys": 6569,
      "ĠURI": 6570,
      "://$(": 6571,
      "ImagePull": 6572,
      "Ġrunning": 6573,
      "THEUS": 6574,
      "PROMETHEUS": 6575,
      "6000": 6576,
      "har": 6577,
      "ĠConfigMap": 6578,
      "lugin": 6579,
      "review": 6580,
      "taint": 6581,
      "workflowtemplates": 6582,
      "117": 6583,
      "terminated": 6584,
      "PLUGIN": 6585,
      "mbassador": 6586,
      "invalid": 6587,
      "chen": 6588,
      "minimal": 6589,
      "Ġdetermin": 6590,
      "upgraded": 6591,
      "WRITE": 6592,
      "thrift": 6593,
      "infinity": 6594,
      "15672": 6595,
      "Ġbehavior": 6596,
      "HEADER": 6597,
      "gcePersistentDisk": 6598,
      "GENERAL": 6599,
      "[*].": 6600,
      "3100": 6601,
      "PR": 6602,
      "pong": 6603,
      "Ġaccount": 6604,
      "rope": 6605,
      "rancher": 6606,
      "Ġattributes": 6607,
      "ManagedIdentity": 6608,
      "Handle": 6609,
      "ValidatingWebhookConfiguration": 6610,
      "BPF": 6611,
      "Gate": 6612,
      "GODE": 6613,
      "fn": 6614,
      "Ġinstalled": 6615,
      "imagestream": 6616,
      "serviceAccountToken": 6617,
      "Ġspecify": 6618,
      "kyma": 6619,
      "HERE": 6620,
      "GODEBUG": 6621,
      "Scal": 6622,
      "ao": 6623,
      "stolon": 6624,
      "details": 6625,
      "SSING": 6626,
      "waagent": 6627,
      "selfSigned": 6628,
      "RAILS": 6629,
      "experiment": 6630,
      "311": 6631,
      "ET": 6632,
      "SIT": 6633,
      "nodeplugin": 6634,
      "buff": 6635,
      "USERS": 6636,
      "cach": 6637,
      "Ġadded": 6638,
      "IFS": 6639,
      "kc": 6640,
      "Ġpool": 6641,
      "stu": 6642,
      "enfor": 6643,
      "bea": 6644,
      "fluentbit": 6645,
      "achine": 6646,
      "MISSING": 6647,
      "jvmOptions": 6648,
      "cti": 6649,
      "dh": 6650,
      "partition": 6651,
      "pdName": 6652,
      "INFLUXDB": 6653,
      "CAP": 6654,
      "Cha": 6655,
      "dle": 6656,
      "slow": 6657,
      "era": 6658,
      "chp": 6659,
      "romu": 6660,
      "HealthCheck": 6661,
      "checker": 6662,
      "Ġqualifie": 6663,
      "char": 6664,
      "entries": 6665,
      "ridge": 6666,
      "multus": 6667,
      "cors": 6668,
      "ASP": 6669,
      "ORE": 6670,
      "ZW": 6671,
      "cif": 6672,
      "mm": 6673,
      "pref": 6674,
      "textfile": 6675,
      "study": 6676,
      "\"]": 6677,
      "ZG": 6678,
      "uc": 6679,
      "Ġvalid": 6680,
      "people": 6681,
      "tars": 6682,
      "multicloud": 6683,
      "INSTALL": 6684,
      "134": 6685,
      "Current": 6686,
      "SU": 6687,
      "Ġ%": 6688,
      "ora": 6689,
      "sth": 6690,
      "artemis": 6691,
      "edgemesh": 6692,
      "counter": 6693,
      "ETCD": 6694,
      "CAR": 6695,
      "JVB": 6696,
      "Ġtrack": 6697,
      "geo": 6698,
      "ale": 6699,
      "iser": 6700,
      "brancz": 6701,
      "NETCORE": 6702,
      ":+": 6703,
      "lone": 6704,
      "prun": 6705,
      "Ġup": 6706,
      "illa": 6707,
      "gos": 6708,
      "merge": 6709,
      "toolbox": 6710,
      "Ġsettings": 6711,
      "missions": 6712,
      "karmada": 6713,
      "ASPNETCORE": 6714,
      ");": 6715,
      "usages": 6716,
      "projectcontour": 6717,
      "csr": 6718,
      "CRYPT": 6719,
      "asp": 6720,
      "dron": 6721,
      "xds": 6722,
      "Ġread": 6723,
      "Ġ1800": 6724,
      "Format": 6725,
      "ian": 6726,
      "Ġo": 6727,
      "gorith": 6728,
      "lertmanager": 6729,
      "diaggar": 6730,
      "volumeattachments": 6731,
      "helper": 6732,
      "taskruns": 6733,
      "OWNER": 6734,
      "Plugin": 6735,
      "xtables": 6736,
      "Ġlogs": 6737,
      "IDS": 6738,
      "WORDPRESS": 6739,
      "talk": 6740,
      "Days": 6741,
      "Ġcert": 6742,
      "nsx": 6743,
      "authentic": 6744,
      "tichi": 6745,
      "Plane": 6746,
      "Ġsystem": 6747,
      "haj": 6748,
      "Ġcommunicate": 6749,
      "SECONDS": 6750,
      "sirius": 6751,
      "616": 6752,
      "TA": 6753,
      "_-": 6754,
      "nx": 6755,
      "conver": 6756,
      "REPORT": 6757,
      "Keycloak": 6758,
      "galaxy": 6759,
      "FASTLY": 6760,
      "RK": 6761,
      "Test": 6762,
      "Ġha": 6763,
      "eshop": 6764,
      "alloc": 6765,
      "imari": 6766,
      "director": 6767,
      "WAIT": 6768,
      "compactor": 6769,
      "CERTIFICATE": 6770,
      "gorithm": 6771,
      "hajimari": 6772,
      "jhipster": 6773,
      "itle": 6774,
      "Conver": 6775,
      "30001": 6776,
      "display": 6777,
      "Ġexit": 6778,
      "flyteadmin": 6779,
      "Preferred": 6780,
      "Ġmessages": 6781,
      "440": 6782,
      "issue": 6783,
      "gserviceaccount": 6784,
      "iro": 6785,
      "via": 6786,
      "BS": 6787,
      "NUL": 6788,
      "ela": 6789,
      "forman": 6790,
      "Total": 6791,
      "utorial": 6792,
      "398": 6793,
      "gg": 6794,
      "ham": 6795,
      "103": 6796,
      "metricsConfig": 6797,
      "182": 6798,
      "ĠCertificateRequest": 6799,
      "pkcs": 6800,
      "cadvisor": 6801,
      "orchestrator": 6802,
      "EXECUTOR": 6803,
      "cncf": 6804,
      "Ġenvironment": 6805,
      "idecar": 6806,
      "grad": 6807,
      "364": 6808,
      "Di": 6809,
      "ju": 6810,
      "sam": 6811,
      "tro": 6812,
      "Ġmount": 6813,
      "809": 6814,
      "limitranges": 6815,
      "Ġinclude": 6816,
      "PROBE": 6817,
      "\";": 6818,
      "RPC": 6819,
      "cG": 6820,
      "ĠStorage": 6821,
      "apisix": 6822,
      "upport": 6823,
      "isol": 6824,
      "sive": 6825,
      "prometheusrules": 6826,
      "IONS": 6827,
      "sidecars": 6828,
      "IFY": 6829,
      "whereami": 6830,
      "Hub": 6831,
      "Extra": 6832,
      "PROTO": 6833,
      "ProfileNames": 6834,
      "LOCATION": 6835,
      "allowedProfileNames": 6836,
      "Ranges": 6837,
      "PU": 6838,
      "fst": 6839,
      "zee": 6840,
      "Ġkubernetes": 6841,
      "Ġ}}-": 6842,
      "offender": 6843,
      "neo": 6844,
      "scheduledworkflow": 6845,
      "PY": 6846,
      "Sidecar": 6847,
      "rsa": 6848,
      "Ġphase": 6849,
      "ecking": 6850,
      "annotate": 6851,
      "feed": 6852,
      "ostgre": 6853,
      "Hosts": 6854,
      "relic": 6855,
      "litmuschaos": 6856,
      "LOCALMSPID": 6857,
      "PreferredDuringScheduling": 6858,
      "BER": 6859,
      "Co": 6860,
      "kubec": 6861,
      "bozu": 6862,
      "Exp": 6863,
      "latform": 6864,
      "154": 6865,
      "gnb": 6866,
      "248": 6867,
      "cybozu": 6868,
      "Agent": 6869,
      "ingester": 6870,
      "cromu": 6871,
      "vt": 6872,
      "ervis": 6873,
      "exposer": 6874,
      "trabackup": 6875,
      "511": 6876,
      "OF": 6877,
      "Self": 6878,
      "boun": 6879,
      "vd": 6880,
      "Ġk": 6881,
      "itecore": 6882,
      "externalName": 6883,
      "msa": 6884,
      "Ġbeing": 6885,
      "SHARD": 6886,
      "starboard": 6887,
      "hannel": 6888,
      "warden": 6889,
      "formance": 6890,
      "224": 6891,
      "Ġdest": 6892,
      "Ġobjects": 6893,
      "Capacity": 6894,
      "middle": 6895,
      "Ġhave": 6896,
      "bouncer": 6897,
      "Sitecore": 6898,
      "stest": 6899,
      "Ġcur": 6900,
      "Ġfound": 6901,
      "reflector": 6902,
      "Ġapp": 6903,
      "Ġtolerations": 6904,
      "icr": 6905,
      "LED": 6906,
      "loadtester": 6907,
      "BACKREST": 6908,
      "VALUE": 6909,
      "TRACE": 6910,
      "couchdb": 6911,
      "tanzu": 6912,
      "Ġdestination": 6913,
      "pgs": 6914,
      "pid": 6915,
      "pelin": 6916,
      "elimit": 6917,
      "reth": 6918,
      "divisor": 6919,
      "charts": 6920,
      "778": 6921,
      "entrypoints": 6922,
      "pacman": 6923,
      "crunchydata": 6924,
      "SETTINGS": 6925,
      "Grafana": 6926,
      "MU": 6927,
      "Ġsecrets": 6928,
      "501": 6929,
      "Ġ*/": 6930,
      "abb": 6931,
      "ksa": 6932,
      "Ġclass": 6933,
      "LABELS": 6934,
      "-${": 6935,
      "En": 6936,
      "Ym": 6937,
      "ENCE": 6938,
      "visualization": 6939,
      "8084": 6940,
      "Ġreconciled": 6941,
      "190": 6942,
      "sar": 6943,
      "yper": 6944,
      "Ġdomain": 6945,
      "contact": 6946,
      "clusterissuers": 6947,
      "ordered": 6948,
      "sumologic": 6949,
      "ExternalName": 6950,
      "cvat": 6951,
      "Elastic": 6952,
      "\\/": 6953,
      "rog": 6954,
      "unnel": 6955,
      "ENTITY": 6956,
      "Ġconfigure": 6957,
      "fstype": 6958,
      "Full": 6959,
      "iu": 6960,
      "scc": 6961,
      "Ġone": 6962,
      "Ġdevice": 6963,
      "itions": 6964,
      "170": 6965,
      "placeholdertag": 6966,
      "gm": 6967,
      "roker": 6968,
      "MetricsEnabled": 6969,
      "deletionGracePeriodSeconds": 6970,
      "NATS": 6971,
      "SIDECAR": 6972,
      "Devel": 6973,
      "podDisruptionBudget": 6974,
      "loglevel": 6975,
      "talend": 6976,
      "PROPER": 6977,
      "ignite": 6978,
      "ĠOpen": 6979,
      "fortune": 6980,
      "Feature": 6981,
      "KRA": 6982,
      "Ġimages": 6983,
      "stone": 6984,
      "things": 6985,
      "ingState": 6986,
      "imagenet": 6987,
      "netdns": 6988,
      "istics": 6989,
      "ashi": 6990,
      "sonarr": 6991,
      "inkdb": 6992,
      "studio": 6993,
      "rethinkdb": 6994,
      "KRAKEN": 6995,
      "Ġworkflow": 6996,
      "REE": 6997,
      "249": 6998,
      "modeldb": 6999,
      "ansim": 7000,
      "ueransim": 7001,
      "Interface": 7002,
      "wide": 7003,
      "dynamod": 7004,
      "sysctls": 7005,
      "targetAverageUtilization": 7006,
      "lx": 7007,
      "sourc": 7008,
      "Ġmessage": 7009,
      "ĠHello": 7010,
      "LIO": 7011,
      "6060": 7012,
      "sitelink": 7013,
      "Bucket": 7014,
      "olution": 7015,
      "Fami": 7016,
      "ML": 7017,
      "pgo": 7018,
      "prob": 7019,
      "122": 7020,
      "FACE": 7021,
      "streaming": 7022,
      "synchron": 7023,
      "activemq": 7024,
      "INITDB": 7025,
      "AA": 7026,
      "TWI": 7027,
      "Ġconnect": 7028,
      "maintenance": 7029,
      "perime": 7030,
      "119": 7031,
      "ITOR": 7032,
      "DBNAME": 7033,
      "COFO": 7034,
      "opflex": 7035,
      "Ġbeen": 7036,
      "BOOK": 7037,
      "windowsOptions": 7038,
      "Ġoperat": 7039,
      "simulator": 7040,
      "PROVISIONER": 7041,
      "JICOFO": 7042,
      "icon": 7043,
      "nsc": 7044,
      "zen": 7045,
      "Ġdocker": 7046,
      "109": 7047,
      "Ġwhile": 7048,
      "Ġwait": 7049,
      "Ġsave": 7050,
      "Ġautomatically": 7051,
      "prefect": 7052,
      "cGFzc": 7053,
      "Ġrequests": 7054,
      "ĠServices": 7055,
      "apm": 7056,
      "ictor": 7057,
      "REQ": 7058,
      "kafkaconnect": 7059,
      "discover": 7060,
      "kuma": 7061,
      "after": 7062,
      "availableReplicas": 7063,
      "course": 7064,
      "diaggarw": 7065,
      "244": 7066,
      "sf": 7067,
      "Ġmany": 7068,
      "openh": 7069,
      "opencloud": 7070,
      "ashboard": 7071,
      "trial": 7072,
      "brows": 7073,
      "truststore": 7074,
      "RevisionName": 7075,
      "twitter": 7076,
      "wallet": 7077,
      "zhou": 7078,
      "ostgreSQL": 7079,
      "opencloudio": 7080,
      "4180": 7081,
      "Ġstring": 7082,
      "Ġparameters": 7083,
      "etter": 7084,
      "amirror": 7085,
      "kafkamirror": 7086,
      "AUDIT": 7087,
      "4222": 7088,
      "=$": 7089,
      "][": 7090,
      "dmin": 7091,
      "ffix": 7092,
      "gui": 7093,
      "Ġass": 7094,
      "dataverse": 7095,
      "laris": 7096,
      "alTime": 7097,
      "lease": 7098,
      "Registered": 7099,
      "httpbin": 7100,
      "audi": 7101,
      "listener": 7102,
      "cop": 7103,
      "kept": 7104,
      "TIES": 7105,
      "domains": 7106,
      "Ġwithin": 7107,
      "tenants": 7108,
      "getambassador": 7109,
      "PROPERTIES": 7110,
      "=^": 7111,
      "aad": 7112,
      "ook": 7113,
      "Ġno": 7114,
      "aled": 7115,
      "idp": 7116,
      "syslog": 7117,
      "DSN": 7118,
      "librar": 7119,
      "tinyurl": 7120,
      "[\"": 7121,
      "blu": 7122,
      "Ġdate": 7123,
      "eres": 7124,
      "tril": 7125,
      "CONFIGPATH": 7126,
      "observedConfig": 7127,
      "erequest": 7128,
      "Ġchecking": 7129,
      "ĠEnterprise": 7130,
      "MSPCONFIGPATH": 7131,
      "Reported": 7132,
      "CURRENT": 7133,
      "TriggerMesh": 7134,
      "drone": 7135,
      "specReplicasPath": 7136,
      "statusReplicasPath": 7137,
      "crio": 7138,
      "hero": 7139,
      "Ġcurrently": 7140,
      "Defines": 7141,
      "found": 7142,
      "Ġ<": 7143,
      "Ġret": 7144,
      "5556": 7145,
      "Content": 7146,
      "deploymentconfigs": 7147,
      "ANON": 7148,
      "pending": 7149,
      "sou": 7150,
      "tigera": 7151,
      "ĠCIDR": 7152,
      "oundation": 7153,
      "DC": 7154,
      "xtrabackup": 7155,
      "Ġcreate": 7156,
      "ones": 7157,
      "hooks": 7158,
      "683": 7159,
      "newrelic": 7160,
      "enafi": 7161,
      "radarr": 7162,
      "curator": 7163,
      "dan": 7164,
      "gfw": 7165,
      "rac": 7166,
      "uth": 7167,
      "{}": 7168,
      "Ġupdate": 7169,
      "orer": 7170,
      "vena": 7171,
      "going": 7172,
      "1200": 7173,
      "191": 7174,
      "ConnectionStrings": 7175,
      "cifar": 7176,
      "fus": 7177,
      "tutorial": 7178,
      "ving": 7179,
      "Ġmark": 7180,
      "elb": 7181,
      "openssl": 7182,
      "Stream": 7183,
      "ogn": 7184,
      "153": 7185,
      "Ġsink": 7186,
      "supervis": 7187,
      "npm": 7188,
      "Ġemail": 7189,
      "Ġvari": 7190,
      "shap": 7191,
      "305": 7192,
      "grace": 7193,
      "dnsNames": 7194,
      "actual": 7195,
      "WorkflowStep": 7196,
      "ĠClusterIssuer": 7197,
      "Keeper": 7198,
      "Ġstores": 7199,
      "ssrv": 7200,
      "SIC": 7201,
      "Recycle": 7202,
      "PGHA": 7203,
      "PGBACKREST": 7204,
      "ĠPostgres": 7205,
      "skipTLSVerify": 7206,
      "calculator": 7207,
      "Chain": 7208,
      "#!": 7209,
      "Plan": 7210,
      "sap": 7211,
      "Ġtraffic": 7212,
      "itDefinition": 7213,
      "configmanagement": 7214,
      "posit": 7215,
      "rocketmq": 7216,
      "</": 7217,
      "Action": 7218,
      "are": 7219,
      "eph": 7220,
      "Ġinitial": 7221,
      "ecd": 7222,
      "replicaset": 7223,
      "206": 7224,
      "ctions": 7225,
      "30080": 7226,
      "Ġconfigur": 7227,
      "Created": 7228,
      "errors": 7229,
      "IssuerCondition": 7230,
      "KubeProxy": 7231,
      "ĠRFC": 7232,
      "atomic": 7233,
      "alm": 7234,
      "visits": 7235,
      "loader": 7236,
      "vmfs": 7237,
      "FRONTEND": 7238,
      "Ġingress": 7239,
      "ecom": 7240,
      "apiregistration": 7241,
      "tpp": 7242,
      "lytics": 7243,
      "serial": 7244,
      "cattle": 7245,
      "ĠKnative": 7246,
      "classes": 7247,
      "mnli": 7248,
      "perimental": 7249,
      "venafi": 7250,
      "Venafi": 7251,
      "YX": 7252,
      "uat": 7253,
      "upt": 7254,
      "Ġmatch": 7255,
      "metacontroller": 7256,
      "sia": 7257,
      "minLength": 7258,
      "126": 7259,
      "IPC": 7260,
      "907": 7261,
      "257": 7262,
      "138": 7263,
      "lastRegistered": 7264,
      "solvers": 7265,
      "ratelimit": 7266,
      "delivery": 7267,
      "SelfSigned": 7268,
      "lastRegisteredEmail": 7269,
      "DUR": 7270,
      "RBAC": 7271,
      "hic": 7272,
      "rulers": 7273,
      "Replace": 7274,
      "sian": 7275,
      "posts": 7276,
      "242": 7277,
      "thanosrulers": 7278,
      "MONITOR": 7279,
      "EXPIR": 7280,
      "Ð°": 7281,
      "Ġservices": 7282,
      "Ġattach": 7283,
      "chown": 7284,
      "before": 7285,
      "deleted": 7286,
      "171": 7287,
      "binary": 7288,
      "ooKeeper": 7289,
      "firewall": 7290,
      "TraceAll": 7291,
      "ĠZooKeeper": 7292,
      "hangzhou": 7293,
      "EP": 7294,
      "OVER": 7295,
      "Ports": 7296,
      "fab": 7297,
      "contr": 7298,
      "loadtest": 7299,
      "Ġcor": 7300,
      "Specification": 7301,
      "CALI": 7302,
      "pgbouncer": 7303,
      "Install": 7304,
      "maskrcnn": 7305,
      "yperConver": 7306,
      "360": 7307,
      "ZER": 7308,
      "nest": 7309,
      "Ġroot": 7310,
      "tax": 7311,
      "AccountBinding": 7312,
      "codes": 7313,
      "organizations": 7314,
      "externalAccountBinding": 7315,
      "Ġ}}{{": 7316,
      "center": 7317,
      "Ġlisten": 7318,
      "Ġconvert": 7319,
      "BASIC": 7320,
      "Protocol": 7321,
      "craw": 7322,
      "zz": 7323,
      "184": 7324,
      "RUST": 7325,
      "ĠCalico": 7326,
      "msg": 7327,
      "Develop": 7328,
      "8555": 7329,
      "TU": 7330,
      "sds": 7331,
      "ĠIt": 7332,
      "conprof": 7333,
      "ocm": 7334,
      "shar": 7335,
      "118": 7336,
      "LIX": 7337,
      "calris": 7338,
      "Chart": 7339,
      "ACTION": 7340,
      "CHAINCODE": 7341,
      "lookup": 7342,
      "calrissian": 7343,
      "410": 7344,
      "PULL": 7345,
      "gol": 7346,
      "hl": 7347,
      "Ġmemory": 7348,
      "Ġinfo": 7349,
      "Ġproject": 7350,
      "9042": 7351,
      "402": 7352,
      "ApplicationRevision": 7353,
      "Internal": 7354,
      "FELIX": 7355,
      "Ġauthority": 7356,
      "translate": 7357,
      "TWILIO": 7358,
      "pat": 7359,
      "AccountKey": 7360,
      "ipelinesjavascriptdocker": 7361,
      "scaling": 7362,
      "Machine": 7363,
      "ax": 7364,
      "ade": 7365,
      "snap": 7366,
      "ted": 7367,
      "volumeHandle": 7368,
      "econt": 7369,
      "readCon": 7370,
      "mysecret": 7371,
      "Ġafter": 7372,
      "Upgra": 7373,
      "SpreadCon": 7374,
      "13133": 7375,
      "HEAP": 7376,
      "ĠVena": 7377,
      "rails": 7378,
      "ĠHashi": 7379,
      "sthrough": 7380,
      "ĠVenaf": 7381,
      "ĠHashiC": 7382,
      "130": 7383,
      "Quer": 7384,
      "fra": 7385,
      "rome": 7386,
      "appings": 7387,
      "paused": 7388,
      "EXT": 7389,
      "MQTT": 7390,
      "statsd": 7391,
      ")(.*)": 7392,
      "uptime": 7393,
      "Development": 7394,
      "_.": 7395,
      "pho": 7396,
      "vey": 7397,
      "spack": 7398,
      "ubmit": 7399,
      "sku": 7400,
      "8089": 7401,
      "ĠAzure": 7402,
      "presubmit": 7403,
      "walking": 7404,
      "dnssrv": 7405,
      "ulnerability": 7406,
      "klusterlet": 7407,
      "+_": 7408,
      "BY": 7409,
      "Ġle": 7410,
      "step": 7411,
      "ectonic": 7412,
      "intra": 7413,
      "tena": 7414,
      "243": 7415,
      "Connector": 7416,
      "ProfileName": 7417,
      "awx": 7418,
      "unique": 7419,
      "ekco": 7420,
      "dynamodb": 7421,
      "MK": 7422,
      "Out": 7423,
      "yur": 7424,
      "Ġmost": 7425,
      "dated": 7426,
      "isk": 7427,
      "mypvc": 7428,
      "SEND": 7429,
      "subnet": 7430,
      "abc": 7431,
      "ibmcloud": 7432,
      "275": 7433,
      "Ġprovide": 7434,
      "Flow": 7435,
      "IS": 7436,
      "ean": 7437,
      "Ġbase": 7438,
      "ores": 7439,
      "195": 7440,
      "686": 7441,
      "SPIF": 7442,
      "EXPORT": 7443,
      "perfzero": 7444,
      "tuning": 7445,
      "cks": 7446,
      "ova": 7447,
      "dem": 7448,
      "sequ": 7449,
      "amf": 7450,
      "defaultProfileName": 7451,
      "208": 7452,
      "subsets": 7453,
      "116": 7454,
      "Ext": 7455,
      "oleration": 7456,
      "Hostname": 7457,
      "flexVolume": 7458,
      "Subscription": 7459,
      "ulnerabilities": 7460,
      "DIRECTORY": 7461,
      "SPIFFE": 7462,
      "san": 7463,
      "desired": 7464,
      "workdir": 7465,
      "websecure": 7466,
      "RANGE": 7467,
      "wildcard": 7468,
      "persistenceagent": 7469,
      "#!/": 7470,
      "SCA": 7471,
      "Ġresult": 7472,
      "exist": 7473,
      "SELECT": 7474,
      "169": 7475,
      "383": 7476,
      "disableAccountKey": 7477,
      "preferredChain": 7478,
      "Metric": 7479,
      "Device": 7480,
      "meeting": 7481,
      "disableAccountKeyGeneration": 7482,
      "144": 7483,
      "Enc": 7484,
      "fl": 7485,
      "ĠApp": 7486,
      "lant": 7487,
      "gopath": 7488,
      "ADAP": 7489,
      "consol": 7490,
      "grep": 7491,
      "great": 7492,
      "Monitor": 7493,
      "Mutating": 7494,
      "keptn": 7495,
      "Lock": 7496,
      "Ġnc": 7497,
      "ematic": 7498,
      "vehic": 7499,
      "Exporter": 7500,
      "333": 7501,
      "anyOf": 7502,
      "ĠAmazon": 7503,
      "GRAPHQL": 7504,
      "Track": 7505,
      "yaks": 7506,
      "volumeID": 7507,
      "ERROR": 7508,
      "plunk": 7509,
      "187": 7510,
      "opic": 7511,
      "Ġmust": 7512,
      "vxlan": 7513,
      "140": 7514,
      "NGIN": 7515,
      "jb": 7516,
      "pp": 7517,
      "Ġcomp": 7518,
      "Ġtaint": 7519,
      "Project": 7520,
      "ADVER": 7521,
      "deploymentconfig": 7522,
      "pguser": 7523,
      "commonName": 7524,
      "istries": 7525,
      "votingapp": 7526,
      "connectors": 7527,
      "lickH": 7528,
      "NGINX": 7529,
      "628": 7530,
      "tectonic": 7531,
      "ĠÐ": 7532,
      "ales": 7533,
      "245": 7534,
      "Filter": 7535,
      "202110": 7536,
      "approval": 7537,
      "ĠVMA": 7538,
      "SeverityS": 7539,
      ".$(": 7540,
      "UUID": 7541,
      "bur": 7542,
      "cit": 7543,
      "cvmfs": 7544,
      "ear": 7545,
      "iperf": 7546,
      "sert": 7547,
      "decla": 7548,
      "ddress": 7549,
      "original": 7550,
      "ROUTER": 7551,
      "ADVERTI": 7552,
      "/${": 7553,
      "/?(": 7554,
      "nss": 7555,
      "Ġextension": 7556,
      "inator": 7557,
      "8088": 7558,
      "Ġconfigured": 7559,
      "legacy": 7560,
      "Cg": 7561,
      "NSE": 7562,
      "PLE": 7563,
      "uman": 7564,
      "keyring": 7565,
      "InRequest": 7566,
      "UsagesInRequest": 7567,
      "CALICO": 7568,
      "ADVERTISE": 7569,
      "bla": 7570,
      "sdb": 7571,
      "ering": 7572,
      "ply": 7573,
      "anony": 7574,
      "deckhouse": 7575,
      "player": 7576,
      "CONSUM": 7577,
      "MutatingWebhookConfiguration": 7578,
      "Task": 7579,
      "VX": 7580,
      "bX": 7581,
      "Ġlocation": 7582,
      "Ġseverity": 7583,
      "kinds": 7584,
      "OnDelete": 7585,
      "podPriority": 7586,
      "numberOf": 7587,
      "Ġwhy": 7588,
      "collectors": 7589,
      "Publish": 7590,
      "quickstart": 7591,
      "PROTOCOL": 7592,
      "Ġassoci": 7593,
      "sdc": 7594,
      "libs": 7595,
      "desk": 7596,
      "807": 7597,
      "suffix": 7598,
      "9876": 7599,
      "preview": 7600,
      "Statuses": 7601,
      "transfer": 7602,
      "ĠTra": 7603,
      "contents": 7604,
      "TTL": 7605,
      "Pattern": 7606,
      "Ġchange": 7607,
      "nth": 7608,
      "isCA": 7609,
      "PAC": 7610,
      "CONSO": 7611,
      "COOK": 7612,
      "202105": 7613,
      "LAY": 7614,
      "besu": 7615,
      "IsCA": 7616,
      "clusterv": 7617,
      "keti": 7618,
      "Iptables": 7619,
      "CONSOLE": 7620,
      "Dat": 7621,
      "Lif": 7622,
      "Scan": 7623,
      "TIC": 7624,
      "WS": 7625,
      "mind": 7626,
      "scode": 7627,
      "procfs": 7628,
      "237": 7629,
      "mutate": 7630,
      "skywalking": 7631,
      "Ġattached": 7632,
      "SUR": 7633,
      "city": 7634,
      "jack": 7635,
      "jvb": 7636,
      "yZ": 7637,
      "Ġcomponents": 7638,
      "compose": 7639,
      "DEFER": 7640,
      "sug": 7641,
      "ueue": 7642,
      "493": 7643,
      "NUMBER": 7644,
      "tiller": 7645,
      "browser": 7646,
      "liation": 7647,
      "ReadOnly": 7648,
      "libvirt": 7649,
      "ledged": 7650,
      "DISCO": 7651,
      "allenges": 7652,
      "court": 7653,
      "Scrape": 7654,
      "replace": 7655,
      "authoriz": 7656,
      "raiser": 7657,
      "cccd": 7658,
      "REMO": 7659,
      "assets": 7660,
      "digest": 7661,
      "Helmraiser": 7662,
      "mediation": 7663,
      "show": 7664,
      "Gateway": 7665,
      "vpa": 7666,
      "secretkey": 7667,
      "strict": 7668,
      "sealed": 7669,
      "309": 7670,
      "8181": 7671,
      "THON": 7672,
      "Ġdefine": 7673,
      "inputs": 7674,
      "hua": 7675,
      "distribution": 7676,
      "IPAddress": 7677,
      "simpl": 7678,
      "PYTHON": 7679,
      "EXPIRATION": 7680,
      "CONSUMER": 7681,
      "BIG": 7682,
      "gator": 7683,
      "Ġmode": 7684,
      "right": 7685,
      "sourcegraph": 7686,
      "Specifies": 7687,
      "gpg": 7688,
      "startTime": 7689,
      "fleet": 7690,
      "integrations": 7691,
      "Users": 7692,
      "Initializer": 7693,
      "lickHouse": 7694,
      "Driver": 7695,
      "SAM": 7696,
      "Welcome": 7697,
      "flu": 7698,
      "ren": 7699,
      "mad": 7700,
      "deep": 7701,
      "tary": 7702,
      "ipFami": 7703,
      "heim": 7704,
      "Ġreport": 7705,
      "tuned": 7706,
      "northe": 7707,
      "Var": 7708,
      "vy": 7709,
      "Ġco": 7710,
      "ocsp": 7711,
      "secretProvider": 7712,
      "129": 7713,
      "emask": 7714,
      "197": 7715,
      "finished": 7716,
      "Force": 7717,
      "jaegertracing": 7718,
      "REPOSIT": 7719,
      "SUBSCRIPTION": 7720,
      "shapemask": 7721,
      "secretProviderClass": 7722,
      "ins": 7723,
      "ese": 7724,
      "permissions": 7725,
      "controlplane": 7726,
      "idle": 7727,
      "agentconfig": 7728,
      "4317": 7729,
      "DNSNames": 7730,
      "dockersock": 7731,
      "anonym": 7732,
      "cing": 7733,
      "felix": 7734,
      "aterequest": 7735,
      "plc": 7736,
      "encoded": 7737,
      "clientSecret": 7738,
      "crux": 7739,
      "Ġreturn": 7740,
      "(/": 7741,
      "-$": 7742,
      "ived": 7743,
      "jet": 7744,
      "ox": 7745,
      "pwd": 7746,
      "vit": 7747,
      "Ġget": 7748,
      "Ġstandard": 7749,
      "Ġoverride": 7750,
      "icates": 7751,
      "datap": 7752,
      "elinux": 7753,
      "postal": 7754,
      "193": 7755,
      "generic": 7756,
      "marks": 7757,
      "labelSelectorPath": 7758,
      "jupyterhub": 7759,
      "kylin": 7760,
      "314": 7761,
      "9292": 7762,
      "Asia": 7763,
      "dr": 7764,
      "ius": 7765,
      "rub": 7766,
      "Ġ3": 7767,
      "Ġcontainers": 7768,
      "Ġpassword": 7769,
      "escal": 7770,
      "faf": 7771,
      "topics": 7772,
      "atson": 7773,
      "syncer": 7774,
      "Ġunder": 7775,
      "GID": 7776,
      "foundation": 7777,
      "osp": 7778,
      "sas": 7779,
      "wan": 7780,
      "|$": 7781,
      "enet": 7782,
      "challenges": 7783,
      "207": 7784,
      "157": 7785,
      "builders": 7786,
      "ĠSee": 7787,
      "variant": 7788,
      "1337": 7789,
      "Applied": 7790,
      "664": 7791,
      "fac": 7792,
      "lh": 7793,
      "ucloud": 7794,
      "strap": 7795,
      "reads": 7796,
      "ider": 7797,
      "CHAN": 7798,
      "layers": 7799,
      "integreat": 7800,
      "jira": 7801,
      "enforcer": 7802,
      "ANONY": 7803,
      "contract": 7804,
      "yperConverged": 7805,
      "integreatly": 7806,
      "Ġn": 7807,
      "sty": 7808,
      "ulti": 7809,
      "Reg": 7810,
      "ERY": 7811,
      "sigs": 7812,
      "3031": 7813,
      "445": 7814,
      "ACUM": 7815,
      "topol": 7816,
      "migrator": 7817,
      "solver": 7818,
      "hands": 7819,
      "Objects": 7820,
      "applies": 7821,
      "udagram": 7822,
      "PrivateKey": 7823,
      "audience": 7824,
      "ACUMOS": 7825,
      ".-": 7826,
      "JM": 7827,
      "title": 7828,
      "Ġwi": 7829,
      "slice": 7830,
      "outputs": 7831,
      "Build": 7832,
      "jiva": 7833,
      "Ġrecon": 7834,
      "DISCOVER": 7835,
      "watson": 7836,
      "xtr": 7837,
      "Ġ4": 7838,
      "Ġallowed": 7839,
      "noder": 7840,
      "artifactRepository": 7841,
      "REPOSITORY": 7842,
      "Broker": 7843,
      "Open": 7844,
      "Ġextra": 7845,
      "perl": 7846,
      "img": 7847,
      "oke": 7848,
      "certificaterequest": 7849,
      "universe": 7850,
      "repositories": 7851,
      "alibaba": 7852,
      "abbix": 7853,
      "suggest": 7854,
      "|$)(.*)": 7855,
      ",\"": 7856,
      "-<": 7857,
      "hcl": 7858,
      "Ġclient": 7859,
      "configsync": 7860,
      "libmodules": 7861,
      "accessToken": 7862,
      "194": 7863,
      "installation": 7864,
      "sizeLimit": 7865,
      "376": 7866,
      "runtimeClassName": 7867,
      "expired": 7868,
      "movies": 7869,
      "REPLI": 7870,
      "xtradb": 7871,
      "681": 7872,
      "ig": 7873,
      "zabbix": 7874,
      "32000": 7875,
      "enableDuration": 7876,
      "2144": 7877,
      "WorkloadDefinition": 7878,
      "matrix": 7879,
      "QUA": 7880,
      "Instance": 7881,
      "Topic": 7882,
      "evaluation": 7883,
      "beacon": 7884,
      "/?(.*)": 7885,
      "COOKIE": 7886,
      "enableDurationFeature": 7887,
      "='": 7888,
      "iap": 7889,
      "vz": 7890,
      "Ġob": 7891,
      "Ġkee": 7892,
      "ĠFor": 7893,
      "reboot": 7894,
      "ipAddresses": 7895,
      "ghai": 7896,
      "247": 7897,
      "externalIPs": 7898,
      "functions": 7899,
      "munity": 7900,
      "analyzer": 7901,
      "jane": 7902,
      "TRAC": 7903,
      "documentation": 7904,
      "weaveworksdemos": 7905,
      "mobil": 7906,
      "NER": 7907,
      "inmemory": 7908,
      "rus": 7909,
      "002": 7910,
      "253": 7911,
      "179": 7912,
      "Ġcd": 7913,
      "save": 7914,
      "SHARED": 7915,
      "OPTIONS": 7916,
      "Ġkeeps": 7917,
      "4001": 7918,
      "Ti": 7919,
      "apt": 7920,
      "MAN": 7921,
      "8800": 7922,
      "198": 7923,
      "146": 7924,
      "triage": 7925,
      "291": 7926,
      "236": 7927,
      "12345": 7928,
      "ĠToleration": 7929,
      "SCAL": 7930,
      "explorer": 7931,
      "Minimum": 7932,
      "bana": 7933,
      "selinux": 7934,
      "tmax": 7935,
      "Ġlabels": 7936,
      "Ġauto": 7937,
      "Ġtrait": 7938,
      "major": 7939,
      "configure": 7940,
      "cpd": 7941,
      "weather": 7942,
      "infini": 7943,
      "High": 7944,
      "kotsadmdata": 7945,
      "LogsFile": 7946,
      "tesla": 7947,
      "booking": 7948,
      "Ġitem": 7949,
      "CloudEvent": 7950,
      "mkdir": 7951,
      "={": 7952,
      "dor": 7953,
      "fre": 7954,
      "kip": 7955,
      "uhub": 7956,
      "Ġstart": 7957,
      "Ġsize": 7958,
      "Ġperiod": 7959,
      "ĠOperator": 7960,
      "icro": 7961,
      "lex": 7962,
      "005": 7963,
      "303": 7964,
      "gcactivities": 7965,
      "cmV": 7966,
      "jax": 7967,
      "PERIO": 7968,
      "472": 7969,
      "gossip": 7970,
      "(/|$)(.*)": 7971,
      "ires": 7972,
      "Ġtail": 7973,
      "Ġreadiness": 7974,
      "205": 7975,
      "accesskey": 7976,
      "5002": 7977,
      "OBJECT": 7978,
      "VALID": 7979,
      "aquasecurity": 7980,
      "crawler": 7981,
      "IPAddresses": 7982,
      "PERIOD": 7983,
      "Ta": 7984,
      "between": 7985,
      "frog": 7986,
      "Regex": 7987,
      "edu": 7988,
      "iffer": 7989,
      "158": 7990,
      "ffold": 7991,
      "Ġ||": 7992,
      "corp": 7993,
      "denylist": 7994,
      "Ġrequired": 7995,
      "Ġfiles": 7996,
      "rego": 7997,
      "gem": 7998,
      "apiVersionValue": 7999,
      "podSpec": 8000,
      "VolumeSnapshot": 8001,
      "liber": 8002,
      "327": 8003,
      "163": 8004,
      "uidValue": 8005,
      "ĠTopic": 8006,
      "Ġeach": 8007,
      "evals": 8008,
      "thingsboard": 8009,
      "Ġreturned": 8010,
      "9113": 8011,
      "=^(": 8012,
      "cof": 8013,
      "Ġmy": 8014,
      "Ġbackup": 8015,
      "kubet": 8016,
      "901": 8017,
      "reservice": 8018,
      "239": 8019,
      "shoot": 8020,
      "262144": 8021,
      "azureservice": 8022,
      "ĠJenkins": 8023,
      "Ag": 8024,
      "ĠPod": 8025,
      "keyvault": 8026,
      "ump": 8027,
      "ADB": 8028,
      "gcpods": 8029,
      "payload": 8030,
      "errored": 8031,
      "reporter": 8032,
      "two": 8033,
      "coordinator": 8034,
      "Instances": 8035,
      "750": 8036,
      "IFIC": 8037,
      "eir": 8038,
      "epc": 8039,
      "kapp": 8040,
      "Ġgenerated": 8041,
      "One": 8042,
      "Ġtop": 8043,
      "ension": 8044,
      "ĠSource": 8045,
      "CONNECTIONSTRING": 8046,
      "northeast": 8047,
      "REPLICA": 8048,
      "ĠConfig": 8049,
      "ĠTLS": 8050,
      "Ġrollout": 8051,
      "postsubmit": 8052,
      "324": 8053,
      "otelcol": 8054,
      "Down": 8055,
      "garden": 8056,
      "14268": 8057,
      "wrapper": 8058,
      "EGERIA": 8059,
      "sparse": 8060,
      "libraries": 8061,
      "ovai": 8062,
      "210": 8063,
      "Rules": 8064,
      "fh": 8065,
      "ska": 8066,
      "Ġcredentials": 8067,
      "Ġclusters": 8068,
      "spider": 8069,
      "dead": 8070,
      "ilio": 8071,
      "notes": 8072,
      "priv": 8073,
      "partitions": 8074,
      "features": 8075,
      "pgadmin": 8076,
      "Ġhuman": 8077,
      "explore": 8078,
      "Corefile": 8079,
      "pgsql": 8080,
      "DURATION": 8081,
      "REMOTE": 8082,
      "AQUA": 8083,
      "Ent": 8084,
      "Pack": 8085,
      "Ret": 8086,
      "cuda": 8087,
      "dom": 8088,
      "snip": 8089,
      "Ġloc": 8090,
      "Ġtoler": 8091,
      "ĠGener": 8092,
      "Ġchannel": 8093,
      "Ġchecks": 8094,
      "lent": 8095,
      "istiod": 8096,
      "infos": 8097,
      "Assign": 8098,
      "238": 8099,
      "Stand": 8100,
      "lxcfs": 8101,
      "kafkaconnects": 8102,
      "ola": 8103,
      "qdata": 8104,
      "warn": 8105,
      "nar": 8106,
      "chrome": 8107,
      "unic": 8108,
      "606": 8109,
      "question": 8110,
      "ComponentDefinition": 8111,
      "Ġcorrespon": 8112,
      "pel": 8113,
      "dataSource": 8114,
      "alsol": 8115,
      "lower": 8116,
      "558": 8117,
      "ogtostderr": 8118,
      "teamtalk": 8119,
      "Ġtargeted": 8120,
      "tmpl": 8121,
      "snmp": 8122,
      "Ġmeans": 8123,
      "Cookie": 8124,
      "eirini": 8125,
      "alsologtostderr": 8126,
      "split": 8127,
      "Ġwhat": 8128,
      "sampleapp": 8129,
      "torrent": 8130,
      "TRACK": 8131,
      "reverseproxy": 8132,
      "=[": 8133,
      "jdk": 8134,
      "ĠW": 8135,
      "ĠOptions": 8136,
      "tab": 8137,
      "Ġtheir": 8138,
      "githubuser": 8139,
      "unsupported": 8140,
      "AUTHOR": 8141,
      "tensorboard": 8142,
      "recomme": 8143,
      "EventTypes": 8144,
      "eresources": 8145,
      "IFICATION": 8146,
      "githubusercontent": 8147,
      "7200": 8148,
      "Drop": 8149,
      "Rate": 8150,
      "kus": 8151,
      "ĠN": 8152,
      "Ġnon": 8153,
      "advertise": 8154,
      "objectstorage": 8155,
      "protection": 8156,
      "SES": 8157,
      "gital": 8158,
      "agger": 8159,
      "prepa": 8160,
      "xlnet": 8161,
      "kuar": 8162,
      "periodics": 8163,
      "customers": 8164,
      "resolv": 8165,
      "1883": 8166,
      "aspnet": 8167,
      "Tracker": 8168,
      "CRU": 8169,
      "JVM": 8170,
      "PI": 8171,
      "}:": 8172,
      "Ðµ": 8173,
      "Namespaces": 8174,
      "authz": 8175,
      "IPv": 8176,
      "CHA": 8177,
      "music": 8178,
      "whisk": 8179,
      "FILLED": 8180,
      "launch": 8181,
      "yndesis": 8182,
      "presubmits": 8183,
      "postsubmits": 8184,
      "211": 8185,
      "2147": 8186,
      "MB": 8187,
      "ilo": 8188,
      "msp": 8189,
      "vus": 8190,
      "vue": 8191
    },
    "merges": [
      [
        "m",
        "e"
      ],
      [
        "e",
        "r"
      ],
      [
        "o",
        "n"
      ],
      [
        "a",
        "t"
      ],
      [
        "n",
        "a"
      ],
      [
        "i",
        "n"
      ],
      [
        "na",
        "me"
      ],
      [
        "e",
        "s"
      ],
      [
        "o",
        "r"
      ],
      [
        "e",
        "c"
      ],
      [
        "a",
        "p"
      ],
      [
        "s",
        "t"
      ],
      [
        "i",
        "on"
      ],
      [
        "t",
        "a"
      ],
      [
        "e",
        "l"
      ],
      [
        "e",
        "t"
      ],
      [
        "r",
        "o"
      ],
      [
        "l",
        "u"
      ],
      [
        "c",
        "on"
      ],
      [
        "n",
        "t"
      ],
      [
        "i",
        "c"
      ],
      [
        "o",
        "u"
      ],
      [
        "r",
        "e"
      ],
      [
        "er",
        "s"
      ],
      [
        "d",
        "at"
      ],
      [
        "s",
        "p"
      ],
      [
        "dat",
        "a"
      ],
      [
        "f",
        "i"
      ],
      [
        "m",
        "a"
      ],
      [
        "ap",
        "p"
      ],
      [
        "i",
        "t"
      ],
      [
        "i",
        "o"
      ],
      [
        "ap",
        "i"
      ],
      [
        "g",
        "e"
      ],
      [
        "me",
        "ta"
      ],
      [
        "a",
        "c"
      ],
      [
        "or",
        "t"
      ],
      [
        "meta",
        "data"
      ],
      [
        "u",
        "b"
      ],
      [
        "l",
        "a"
      ],
      [
        "p",
        "e"
      ],
      [
        "k",
        "in"
      ],
      [
        "ers",
        "ion"
      ],
      [
        "d",
        "e"
      ],
      [
        "fi",
        "g"
      ],
      [
        "r",
        "es"
      ],
      [
        "v",
        "a"
      ],
      [
        "p",
        "l"
      ],
      [
        "at",
        "h"
      ],
      [
        "kin",
        "d"
      ],
      [
        "o",
        "l"
      ],
      [
        "ec",
        "t"
      ],
      [
        "a",
        "l"
      ],
      [
        "sp",
        "ec"
      ],
      [
        "t",
        "h"
      ],
      [
        "e",
        "n"
      ],
      [
        "V",
        "ersion"
      ],
      [
        "b",
        "el"
      ],
      [
        "p",
        "ro"
      ],
      [
        "c",
        "h"
      ],
      [
        "t",
        "y"
      ],
      [
        "api",
        "Version"
      ],
      [
        "er",
        "v"
      ],
      [
        "in",
        "g"
      ],
      [
        "con",
        "fig"
      ],
      [
        "bel",
        "s"
      ],
      [
        "ty",
        "pe"
      ],
      [
        "k",
        "ub"
      ],
      [
        "ou",
        "nt"
      ],
      [
        "lu",
        "e"
      ],
      [
        "r",
        "u"
      ],
      [
        "p",
        "ort"
      ],
      [
        "a",
        "d"
      ],
      [
        "va",
        "lue"
      ],
      [
        "at",
        "e"
      ],
      [
        "at",
        "ion"
      ],
      [
        "a",
        "r"
      ],
      [
        "ta",
        "in"
      ],
      [
        "r",
        "i"
      ],
      [
        "a",
        "s"
      ],
      [
        "i",
        "ma"
      ],
      [
        "l",
        "i"
      ],
      [
        "ima",
        "ge"
      ],
      [
        "u",
        "s"
      ],
      [
        "n",
        "et"
      ],
      [
        "P",
        "ath"
      ],
      [
        "l",
        "e"
      ],
      [
        "con",
        "tain"
      ],
      [
        "s",
        "erv"
      ],
      [
        "la",
        "bels"
      ],
      [
        "e",
        "m"
      ],
      [
        "p",
        "er"
      ],
      [
        "o",
        "m"
      ],
      [
        "r",
        "c"
      ],
      [
        "ic",
        "e"
      ],
      [
        "ac",
        "e"
      ],
      [
        "ou",
        "rc"
      ],
      [
        "0",
        "0"
      ],
      [
        "o",
        "b"
      ],
      [
        "s",
        "ec"
      ],
      [
        "er",
        "net"
      ],
      [
        "u",
        "l"
      ],
      [
        "ernet",
        "es"
      ],
      [
        "kub",
        "ernetes"
      ],
      [
        "o",
        "lu"
      ],
      [
        "sp",
        "ace"
      ],
      [
        "a",
        "n"
      ],
      [
        "olu",
        "me"
      ],
      [
        "r",
        "et"
      ],
      [
        "e",
        "nt"
      ],
      [
        "R",
        "e"
      ],
      [
        "o",
        "c"
      ],
      [
        "ect",
        "or"
      ],
      [
        "p",
        "t"
      ],
      [
        "ru",
        "e"
      ],
      [
        "u",
        "p"
      ],
      [
        "c",
        "om"
      ],
      [
        "at",
        "ch"
      ],
      [
        "res",
        "ourc"
      ],
      [
        "t",
        "i"
      ],
      [
        "d",
        "es"
      ],
      [
        "-",
        "-"
      ],
      [
        "8",
        "0"
      ],
      [
        "n",
        "o"
      ],
      [
        "a",
        "me"
      ],
      [
        "e",
        "y"
      ],
      [
        "sec",
        "ret"
      ],
      [
        "h",
        "o"
      ],
      [
        "d",
        "s"
      ],
      [
        "name",
        "space"
      ],
      [
        "v",
        "olume"
      ],
      [
        "p",
        "o"
      ],
      [
        "el",
        "ector"
      ],
      [
        "P",
        "ort"
      ],
      [
        "pt",
        "ion"
      ],
      [
        "N",
        "ame"
      ],
      [
        "st",
        "er"
      ],
      [
        "i",
        "s"
      ],
      [
        "h",
        "t"
      ],
      [
        "resourc",
        "es"
      ],
      [
        "c",
        "ri"
      ],
      [
        "t",
        "p"
      ],
      [
        "m",
        "ount"
      ],
      [
        "q",
        "u"
      ],
      [
        "st",
        "r"
      ],
      [
        "es",
        "t"
      ],
      [
        "l",
        "o"
      ],
      [
        "mount",
        "Path"
      ],
      [
        "f",
        "a"
      ],
      [
        "contain",
        "ers"
      ],
      [
        "ec",
        "on"
      ],
      [
        "th",
        "e"
      ],
      [
        "cri",
        "ption"
      ],
      [
        "ht",
        "tp"
      ],
      [
        "des",
        "cription"
      ],
      [
        "s",
        "elector"
      ],
      [
        "a",
        "y"
      ],
      [
        "e",
        "d"
      ],
      [
        "serv",
        "ice"
      ],
      [
        "s",
        "h"
      ],
      [
        "g",
        "in"
      ],
      [
        "lu",
        "ster"
      ],
      [
        "p",
        "ath"
      ],
      [
        "me",
        "nt"
      ],
      [
        "j",
        "ect"
      ],
      [
        "ol",
        "ic"
      ],
      [
        "a",
        "u"
      ],
      [
        "g",
        "et"
      ],
      [
        "Re",
        "f"
      ],
      [
        "T",
        "rue"
      ],
      [
        "olic",
        "y"
      ],
      [
        "e",
        "x"
      ],
      [
        "v",
        "er"
      ],
      [
        "em",
        "pl"
      ],
      [
        "et",
        "c"
      ],
      [
        "E",
        "R"
      ],
      [
        "ro",
        "up"
      ],
      [
        "s",
        "e"
      ],
      [
        "a",
        "ge"
      ],
      [
        "port",
        "s"
      ],
      [
        "empl",
        "ate"
      ],
      [
        "t",
        "o"
      ],
      [
        "u",
        "r"
      ],
      [
        "P",
        "olicy"
      ],
      [
        "re",
        "ad"
      ],
      [
        "at",
        "or"
      ],
      [
        "o",
        "y"
      ],
      [
        "es",
        "s"
      ],
      [
        "au",
        "th"
      ],
      [
        "t",
        "emplate"
      ],
      [
        "ro",
        "m"
      ],
      [
        "s",
        "i"
      ],
      [
        "k",
        "ey"
      ],
      [
        "st",
        "or"
      ],
      [
        "S",
        "econ"
      ],
      [
        "C",
        "on"
      ],
      [
        "Secon",
        "ds"
      ],
      [
        "w",
        "or"
      ],
      [
        "pl",
        "oy"
      ],
      [
        "b",
        "ac"
      ],
      [
        "pl",
        "ic"
      ],
      [
        "M",
        "ap"
      ],
      [
        "G",
        "roup"
      ],
      [
        "b",
        "o"
      ],
      [
        "D",
        "e"
      ],
      [
        "r",
        "a"
      ],
      [
        "F",
        "rom"
      ],
      [
        "contain",
        "er"
      ],
      [
        "m",
        "atch"
      ],
      [
        "ta",
        "r"
      ],
      [
        "en",
        "v"
      ],
      [
        "ploy",
        "ment"
      ],
      [
        "b",
        "e"
      ],
      [
        "ob",
        "ject"
      ],
      [
        "o",
        "per"
      ],
      [
        "ro",
        "l"
      ],
      [
        "in",
        "it"
      ],
      [
        "l",
        "y"
      ],
      [
        "O",
        "n"
      ],
      [
        "M",
        "E"
      ],
      [
        "app",
        "s"
      ],
      [
        "re",
        "qu"
      ],
      [
        "c",
        "p"
      ],
      [
        "ho",
        "st"
      ],
      [
        "L",
        "a"
      ],
      [
        "1",
        "0"
      ],
      [
        "at",
        "us"
      ],
      [
        "a",
        "m"
      ],
      [
        "La",
        "bels"
      ],
      [
        "value",
        "From"
      ],
      [
        "match",
        "Labels"
      ],
      [
        "api",
        "Group"
      ],
      [
        "i",
        "p"
      ],
      [
        "o",
        "t"
      ],
      [
        "i",
        "r"
      ],
      [
        "oper",
        "ator"
      ],
      [
        "str",
        "ing"
      ],
      [
        "o",
        "pe"
      ],
      [
        "plic",
        "as"
      ],
      [
        "re",
        "d"
      ],
      [
        "fi",
        "el"
      ],
      [
        "g",
        "it"
      ],
      [
        "ul",
        "t"
      ],
      [
        "N",
        "A"
      ],
      [
        "b",
        "s"
      ],
      [
        "c",
        "c"
      ],
      [
        "Ġ",
        "the"
      ],
      [
        "container",
        "Port"
      ],
      [
        "res",
        "s"
      ],
      [
        "S",
        "erv"
      ],
      [
        "con",
        "t"
      ],
      [
        "l",
        "er"
      ],
      [
        "ti",
        "es"
      ],
      [
        "per",
        "ties"
      ],
      [
        "i",
        "z"
      ],
      [
        "n",
        "gin"
      ],
      [
        "R",
        "E"
      ],
      [
        "ngin",
        "x"
      ],
      [
        "st",
        "atus"
      ],
      [
        "no",
        "de"
      ],
      [
        "t",
        "er"
      ],
      [
        "i",
        "st"
      ],
      [
        "or",
        "y"
      ],
      [
        "re",
        "plicas"
      ],
      [
        "j",
        "ob"
      ],
      [
        "c",
        "r"
      ],
      [
        "fiel",
        "d"
      ],
      [
        "g",
        "er"
      ],
      [
        "o",
        "f"
      ],
      [
        "ation",
        "s"
      ],
      [
        "Serv",
        "ice"
      ],
      [
        "pro",
        "perties"
      ],
      [
        "ma",
        "na"
      ],
      [
        "me",
        "m"
      ],
      [
        "i",
        "m"
      ],
      [
        "ope",
        "n"
      ],
      [
        "De",
        "ployment"
      ],
      [
        "ul",
        "l"
      ],
      [
        "stor",
        "age"
      ],
      [
        "On",
        "ly"
      ],
      [
        "apiGroup",
        "s"
      ],
      [
        "ver",
        "bs"
      ],
      [
        "cp",
        "u"
      ],
      [
        "c",
        "luster"
      ],
      [
        "NA",
        "ME"
      ],
      [
        "mem",
        "ory"
      ],
      [
        "read",
        "Only"
      ],
      [
        "cont",
        "rol"
      ],
      [
        "o",
        "k"
      ],
      [
        "oc",
        "k"
      ],
      [
        "n",
        "d"
      ],
      [
        "c",
        "er"
      ],
      [
        "ount",
        "s"
      ],
      [
        "en",
        "d"
      ],
      [
        "pro",
        "t"
      ],
      [
        "o",
        "d"
      ],
      [
        "w",
        "e"
      ],
      [
        "tar",
        "get"
      ],
      [
        "g",
        "s"
      ],
      [
        "volume",
        "M"
      ],
      [
        "oc",
        "ol"
      ],
      [
        "m",
        "in"
      ],
      [
        "fa",
        "ult"
      ],
      [
        "it",
        "y"
      ],
      [
        "c",
        "e"
      ],
      [
        "prot",
        "ocol"
      ],
      [
        "P",
        "ull"
      ],
      [
        "config",
        "Map"
      ],
      [
        "kub",
        "e"
      ],
      [
        "h",
        "e"
      ],
      [
        "image",
        "Pull"
      ],
      [
        "dat",
        "e"
      ],
      [
        "volumeM",
        "ounts"
      ],
      [
        "de",
        "v"
      ],
      [
        "i",
        "l"
      ],
      [
        "h",
        "ub"
      ],
      [
        "de",
        "fault"
      ],
      [
        "A",
        "cc"
      ],
      [
        "S",
        "T"
      ],
      [
        "P",
        "ro"
      ],
      [
        "wor",
        "k"
      ],
      [
        "2",
        "0"
      ],
      [
        "c",
        "si"
      ],
      [
        "Acc",
        "ount"
      ],
      [
        "t",
        "r"
      ],
      [
        "f",
        "or"
      ],
      [
        "s",
        "y"
      ],
      [
        "in",
        "t"
      ],
      [
        "no",
        "t"
      ],
      [
        "imagePull",
        "Policy"
      ],
      [
        "ol",
        "e"
      ],
      [
        "P",
        "O"
      ],
      [
        "K",
        "ey"
      ],
      [
        "t",
        "rue"
      ],
      [
        "control",
        "ler"
      ],
      [
        "i",
        "f"
      ],
      [
        "we",
        "b"
      ],
      [
        "I",
        "N"
      ],
      [
        "requ",
        "est"
      ],
      [
        "s",
        "s"
      ],
      [
        "li",
        "st"
      ],
      [
        "or",
        "iz"
      ],
      [
        "M",
        "i"
      ],
      [
        "git",
        "hub"
      ],
      [
        "T",
        "C"
      ],
      [
        "O",
        "N"
      ],
      [
        "target",
        "Port"
      ],
      [
        "r",
        "bac"
      ],
      [
        "volume",
        "s"
      ],
      [
        "po",
        "d"
      ],
      [
        "as",
        "h"
      ],
      [
        "me",
        "the"
      ],
      [
        "C",
        "luster"
      ],
      [
        "methe",
        "us"
      ],
      [
        "oriz",
        "ation"
      ],
      [
        "request",
        "s"
      ],
      [
        "b",
        "le"
      ],
      [
        "auth",
        "orization"
      ],
      [
        "C",
        "E"
      ],
      [
        "ma",
        "nd"
      ],
      [
        "ion",
        "s"
      ],
      [
        "an",
        "not"
      ],
      [
        "pro",
        "metheus"
      ],
      [
        "com",
        "mand"
      ],
      [
        "i",
        "d"
      ],
      [
        "com",
        "p"
      ],
      [
        "u",
        "m"
      ],
      [
        "ru",
        "n"
      ],
      [
        "p",
        "lu"
      ],
      [
        "annot",
        "ations"
      ],
      [
        "w",
        "ay"
      ],
      [
        "m",
        "on"
      ],
      [
        "v",
        "ersion"
      ],
      [
        "c",
        "re"
      ],
      [
        "serv",
        "er"
      ],
      [
        "TC",
        "P"
      ],
      [
        "g",
        "h"
      ],
      [
        "as",
        "e"
      ],
      [
        "ex",
        "t"
      ],
      [
        "Key",
        "Ref"
      ],
      [
        "v",
        "e"
      ],
      [
        "/",
        "/"
      ],
      [
        "ar",
        "gs"
      ],
      [
        "s",
        "c"
      ],
      [
        "i",
        "al"
      ],
      [
        "al",
        "se"
      ],
      [
        "on",
        "ent"
      ],
      [
        "g",
        "o"
      ],
      [
        ":",
        "//"
      ],
      [
        "P",
        "A"
      ],
      [
        "Ġ",
        "of"
      ],
      [
        "1",
        "00"
      ],
      [
        "g",
        "ra"
      ],
      [
        "ar",
        "d"
      ],
      [
        "la",
        "im"
      ],
      [
        "va",
        "r"
      ],
      [
        "Con",
        "fig"
      ],
      [
        "comp",
        "onent"
      ],
      [
        "mana",
        "ger"
      ],
      [
        "R",
        "ole"
      ],
      [
        "1",
        "2"
      ],
      [
        "io",
        "d"
      ],
      [
        "l",
        "ou"
      ],
      [
        "Pro",
        "be"
      ],
      [
        "j",
        "s"
      ],
      [
        "80",
        "80"
      ],
      [
        "S",
        "ER"
      ],
      [
        "u",
        "n"
      ],
      [
        "st",
        "em"
      ],
      [
        "O",
        "R"
      ],
      [
        "m",
        "y"
      ],
      [
        "=",
        "/"
      ],
      [
        "ess",
        "Probe"
      ],
      [
        "A",
        "l"
      ],
      [
        "el",
        "in"
      ],
      [
        "t",
        "est"
      ],
      [
        "m",
        "it"
      ],
      [
        "ro",
        "le"
      ],
      [
        "lo",
        "g"
      ],
      [
        "iod",
        "Seconds"
      ],
      [
        "m",
        "o"
      ],
      [
        "bac",
        "k"
      ],
      [
        "fa",
        "na"
      ],
      [
        "k",
        "a"
      ],
      [
        "way",
        "s"
      ],
      [
        "ip",
        "elin"
      ],
      [
        "ar",
        "t"
      ],
      [
        "gra",
        "fana"
      ],
      [
        "ic",
        "s"
      ],
      [
        "ac",
        "c"
      ],
      [
        "if",
        "t"
      ],
      [
        "I",
        "P"
      ],
      [
        "Al",
        "ways"
      ],
      [
        "S",
        "E"
      ],
      [
        "s",
        "ch"
      ],
      [
        "me",
        "tr"
      ],
      [
        "s",
        "ub"
      ],
      [
        "b",
        "u"
      ],
      [
        "A",
        "T"
      ],
      [
        "js",
        "on"
      ],
      [
        "el",
        "et"
      ],
      [
        "w",
        "atch"
      ],
      [
        "sh",
        "ift"
      ],
      [
        "li",
        "mit"
      ],
      [
        "lou",
        "d"
      ],
      [
        "l",
        "es"
      ],
      [
        "g",
        "i"
      ],
      [
        "d",
        "b"
      ],
      [
        "open",
        "shift"
      ],
      [
        "ho",
        "ok"
      ],
      [
        "f",
        "init"
      ],
      [
        "d",
        "it"
      ],
      [
        "P",
        "od"
      ],
      [
        "t",
        "e"
      ],
      [
        "in",
        "d"
      ],
      [
        "plu",
        "gin"
      ],
      [
        "cer",
        "t"
      ],
      [
        "p",
        "ipelin"
      ],
      [
        "lo",
        "w"
      ],
      [
        "E",
        "N"
      ],
      [
        "i",
        "red"
      ],
      [
        "field",
        "Path"
      ],
      [
        "ing",
        "ress"
      ],
      [
        "field",
        "Ref"
      ],
      [
        "S",
        "S"
      ],
      [
        "sy",
        "stem"
      ],
      [
        "limit",
        "s"
      ],
      [
        "00",
        "0"
      ],
      [
        "q",
        "l"
      ],
      [
        "service",
        "Account"
      ],
      [
        "x",
        "y"
      ],
      [
        "d",
        "ash"
      ],
      [
        "secret",
        "KeyRef"
      ],
      [
        "ers",
        "ist"
      ],
      [
        "9",
        "0"
      ],
      [
        "c",
        "loud"
      ],
      [
        "k",
        "en"
      ],
      [
        "in",
        "st"
      ],
      [
        "u",
        "st"
      ],
      [
        "dash",
        "bo"
      ],
      [
        "v",
        "i"
      ],
      [
        "A",
        "P"
      ],
      [
        "ersist",
        "ent"
      ],
      [
        "el",
        "e"
      ],
      [
        "to",
        "ken"
      ],
      [
        "ti",
        "me"
      ],
      [
        "metr",
        "ics"
      ],
      [
        "3",
        "0"
      ],
      [
        "v",
        "is"
      ],
      [
        "G",
        "et"
      ],
      [
        "ur",
        "ity"
      ],
      [
        "http",
        "Get"
      ],
      [
        "o",
        "auth"
      ],
      [
        "L",
        "E"
      ],
      [
        "al",
        "th"
      ],
      [
        "f",
        "s"
      ],
      [
        "h",
        "el"
      ],
      [
        "p",
        "ri"
      ],
      [
        "la",
        "n"
      ],
      [
        "e",
        "ma"
      ],
      [
        "he",
        "alth"
      ],
      [
        "serviceAccount",
        "Name"
      ],
      [
        "sec",
        "urity"
      ],
      [
        "g",
        "cr"
      ],
      [
        "o",
        "de"
      ],
      [
        "Config",
        "Map"
      ],
      [
        "ge",
        "d"
      ],
      [
        "5",
        "5"
      ],
      [
        "el",
        "ay"
      ],
      [
        "up",
        "date"
      ],
      [
        "o",
        "s"
      ],
      [
        "pro",
        "xy"
      ],
      [
        "n",
        "s"
      ],
      [
        "v",
        "en"
      ],
      [
        "D",
        "E"
      ],
      [
        "t",
        "l"
      ],
      [
        "requ",
        "ired"
      ],
      [
        "init",
        "ial"
      ],
      [
        "1",
        "1"
      ],
      [
        "secret",
        "Name"
      ],
      [
        "l",
        "oc"
      ],
      [
        "la",
        "ss"
      ],
      [
        "dashbo",
        "ard"
      ],
      [
        "ou",
        "t"
      ],
      [
        "p",
        "h"
      ],
      [
        "Cluster",
        "Role"
      ],
      [
        "Con",
        "t"
      ],
      [
        "M",
        "A"
      ],
      [
        "res",
        "ent"
      ],
      [
        "at",
        "i"
      ],
      [
        "4",
        "4"
      ],
      [
        "Ġ",
        "to"
      ],
      [
        "V",
        "olume"
      ],
      [
        "it",
        "or"
      ],
      [
        "R",
        "O"
      ],
      [
        "E",
        "x"
      ],
      [
        "gi",
        "str"
      ],
      [
        "po",
        "st"
      ],
      [
        "j",
        "x"
      ],
      [
        "D",
        "elay"
      ],
      [
        "en",
        "kin"
      ],
      [
        "Ġ",
        "is"
      ],
      [
        "ru",
        "les"
      ],
      [
        "po",
        "int"
      ],
      [
        "Ġ",
        "a"
      ],
      [
        "enkin",
        "s"
      ],
      [
        "de",
        "mo"
      ],
      [
        "ourc",
        "e"
      ],
      [
        "Delay",
        "Seconds"
      ],
      [
        "L",
        "O"
      ],
      [
        "g",
        "y"
      ],
      [
        "5",
        "0"
      ],
      [
        "initial",
[...]
